<unk>	0
[SOS]	0
[EOS]	0
[MASK]	0
▁a	-0
in	-1
▁t	-2
▁.	-3
ing	-4
▁s	-5
▁w	-6
▁b	-7
he	-8
▁o	-9
an	-10
▁in	-11
it	-12
re	-13
▁the	-14
▁p	-15
▁d	-16
er	-17
ro	-18
▁c	-19
▁m	-20
is	-21
le	-22
ar	-23
▁g	-24
▁do	-25
nd	-26
▁on	-27
la	-28
▁f	-29
▁h	-30
ck	-31
ir	-32
al	-33
at	-34
▁dog	-35
▁is	-36
un	-37
▁and	-38
▁r	-39
ith	-40
▁with	-41
lo	-42
▁of	-43
▁man	-44
ld	-45
▁st	-46
en	-47
id	-48
▁wh	-49
es	-50
om	-51
wo	-52
et	-53
▁to	-54
all	-55
▁two	-56
▁bo	-57
rou	-58
as	-59
and	-60
wn	-61
▁pla	-62
ear	-63
or	-64
▁play	-65
▁j	-66
▁th	-67
▁y	-68
▁l	-69
▁boy	-70
irl	-71
ite	-72
▁girl	-73
▁wom	-74
ed	-75
her	-76
▁sh	-77
▁white	-78
▁are	-79
ut	-80
on	-81
ch	-82
um	-83
▁bla	-84
▁black	-85
no	-86
red	-87
oun	-88
gh	-89
▁wat	-90
▁run	-91
ple	-92
▁ch	-93
▁woman	-94
ers	-95
ur	-96
▁,	-97
ild	-98
▁wear	-99
▁at	-100
king	-101
itt	-102
▁stand	-103
ack	-104
irt	-105
ge	-106
▁wearing	-107
ump	-108
ide	-109
▁pe	-110
▁jump	-111
▁water	-112
▁peo	-113
▁people	-114
ard	-115
ce	-116
▁bro	-117
oo	-118
ver	-119
▁red	-120
▁youn	-121
▁young	-122
▁brown	-123
▁n	-124
▁be	-125
▁child	-126
ss	-127
▁an	-128
▁gr	-129
▁ro	-130
now	-131
▁snow	-132
im	-133
▁co	-134
am	-135
il	-136
ue	-137
ile	-138
▁ho	-139
▁bl	-140
el	-141
▁fro	-142
▁lo	-143
ic	-144
ad	-145
▁his	-146
▁sm	-147
ass	-148
▁blue	-149
ning	-150
st	-151
▁dogs	-152
bo	-153
▁running	-154
round	-155
▁grass	-156
▁out	-157
ri	-158
rough	-159
▁sk	-160
▁shirt	-161
▁wal	-162
▁through	-163
▁playing	-164
low	-165
ther	-166
▁fi	-167
ree	-168
▁while	-169
▁down	-170
▁ball	-171
▁u	-172
▁mo	-173
▁hold	-174
ain	-175
its	-176
ke	-177
▁standing	-178
▁litt	-179
▁little	-180
ve	-181
▁sw	-182
ach	-183
▁gre	-184
ts	-185
▁rid	-186
▁over	-187
▁e	-188
board	-189
to	-190
▁bi	-191
▁he	-192
▁loo	-193
▁pers	-194
▁le	-195
▁person	-196
▁jumping	-197
▁po	-198
ks	-199
nt	-200
▁three	-201
itting	-202
▁ra	-203
▁car	-204
▁la	-205
▁tr	-206
▁back	-207
▁up	-208
▁sitting	-209
eld	-210
▁k	-211
▁field	-212
▁front	-213
ball	-214
▁small	-215
se	-216
▁holding	-217
▁rock	-218
▁yel	-219
▁green	-220
▁yellow	-221
▁lar	-222
ap	-223
side	-224
▁grou	-225
▁group	-226
▁cl	-227
▁by	-228
▁large	-229
ate	-230
▁her	-231
ul	-232
ren	-233
▁one	-234
ying	-235
▁walking	-236
▁near	-237
▁men	-238
air	-239
▁stre	-240
▁sp	-241
▁air	-242
ay	-243
▁children	-244
▁som	-245
▁as	-246
yc	-247
▁bu	-248
ick	-249
ount	-250
ght	-251
▁for	-252
ress	-253
ind	-254
uth	-255
▁mouth	-256
ng	-257
▁skate	-258
▁re	-259
▁into	-260
▁beach	-261
▁dress	-262
▁jumps	-263
ountain	-264
hes	-265
ink	-266
▁street	-267
▁runs	-268
imb	-269
▁par	-270
▁its	-271
if	-272
▁ano	-273
▁skateboard	-274
▁another	-275
▁climb	-276
ood	-277
▁from	-278
▁riding	-279
▁fo	-280
hing	-281
▁other	-282
▁ne	-283
ab	-284
ran	-285
▁stands	-286
▁cam	-287
▁bike	-288
▁sur	-289
▁girls	-290
▁so	-291
row	-292
▁sho	-293
ycle	-294
ground	-295
▁off	-296
▁outside	-297
▁wa	-298
acket	-299
▁mountain	-300
▁swim	-301
ool	-302
range	-303
▁hat	-304
ent	-305
orm	-306
▁some	-307
oot	-308
▁bas	-309
▁looking	-310
▁orange	-311
xt	-312
▁jacket	-313
▁go	-314
▁hand	-315
era	-316
ross	-317
▁pink	-318
▁player	-319
cer	-320
ll	-321
ill	-322
▁next	-323
▁side	-324
▁se	-325
ct	-326
ure	-327
▁cat	-328
▁camera	-329
rick	-330
▁pool	-331
▁fa	-332
▁their	-333
▁wood	-334
▁toy	-335
▁beh	-336
▁behind	-337
ves	-338
iling	-339
▁around	-340
▁boys	-341
uit	-342
▁women	-343
ig	-344
▁surf	-345
pp	-346
ight	-347
▁swing	-348
ak	-349
▁ar	-350
▁soc	-351
▁stick	-352
▁head	-353
▁sl	-354
▁soccer	-355
one	-356
ches	-357
ion	-358
▁sand	-359
▁wall	-360
▁dirt	-361
ting	-362
ee	-363
us	-364
▁sits	-365
▁background	-366
▁clo	-367
▁alo	-368
▁hi	-369
▁foot	-370
▁has	-371
te	-372
▁fl	-373
▁park	-374
les	-375
dy	-376
ilding	-377
▁bic	-378
▁building	-379
rowd	-380
ag	-381
▁crowd	-382
▁dressed	-383
cing	-384
▁kid	-385
▁along	-386
ter	-387
lass	-388
▁hel	-389
▁walks	-390
ching	-391
cross	-392
ture	-393
▁sun	-394
▁top	-395
ket	-396
▁plays	-397
▁dr	-398
▁football	-399
▁hill	-400
▁tan	-401
▁un	-402
ist	-403
▁face	-404
ud	-405
pe	-406
▁pic	-407
▁te	-408
aking	-409
▁four	-410
▁climbing	-411
ie	-412
ly	-413
▁looks	-414
▁swimm	-415
▁blo	-416
ps	-417
▁trick	-418
▁picture	-419
alk	-420
rying	-421
▁smiling	-422
▁grassy	-423
ame	-424
ine	-425
sing	-426
ward	-427
▁across	-428
▁shor	-429
▁colo	-430
▁swimming	-431
▁carrying	-432
▁bicycle	-433
met	-434
▁rides	-435
ho	-436
get	-437
▁hair	-438
▁arm	-439
▁ski	-440
way	-441
▁ten	-442
▁tree	-443
▁helmet	-444
▁bab	-445
▁fen	-446
▁mot	-447
dle	-448
▁sc	-449
▁him	-450
lasses	-451
amp	-452
ath	-453
▁baby	-454
▁holds	-455
▁v	-456
▁ben	-457
▁each	-458
nis	-459
walk	-460
▁snowy	-461
cean	-462
▁tennis	-463
▁ocean	-464
▁hor	-465
gether	-466
▁together	-467
▁road	-468
▁old	-469
▁motor	-470
▁doing	-471
▁'	-472
led	-473
ling	-474
▁race	-475
▁basket	-476
▁mid	-477
do	-478
ey	-479
▁that	-480
▁blond	-481
ving	-482
▁area	-483
▁bench	-484
▁fr	-485
rest	-486
▁pur	-487
▁snowboard	-488
ans	-489
▁it	-490
sh	-491
▁sit	-492
▁grey	-493
ub	-494
ice	-495
▁sidewalk	-496
▁game	-497
▁unif	-498
▁shorts	-499
▁toward	-500
ging	-501
▁uniform	-502
ity	-503
form	-504
vered	-505
▁ground	-506
▁gu	-507
▁abo	-508
▁catch	-509
▁basketball	-510
nder	-511
▁leap	-512
ug	-513
▁fence	-514
▁ob	-515
door	-516
qu	-517
ses	-518
▁bik	-519
▁under	-520
▁flo	-521
▁per	-522
▁walk	-523
▁chas	-524
▁kids	-525
▁motorc	-526
▁cou	-527
ating	-528
ark	-529
ne	-530
▁get	-531
▁base	-532
ething	-533
▁something	-534
gs	-535
▁fe	-536
▁track	-537
ail	-538
are	-539
ip	-540
ies	-541
ff	-542
ants	-543
able	-544
▁being	-545
▁purple	-546
bee	-547
ment	-548
▁fris	-549
▁bar	-550
▁con	-551
▁br	-552
▁com	-553
▁frisbee	-554
veral	-555
▁guy	-556
▁slide	-557
▁skateboarder	-558
akes	-559
▁long	-560
▁perform	-561
▁several	-562
ian	-563
▁boat	-564
▁path	-565
hed	-566
age	-567
iff	-568
▁lake	-569
▁coat	-570
▁wave	-571
ph	-572
ast	-573
▁city	-574
▁clot	-575
▁there	-576
▁covered	-577
ign	-578
ler	-579
▁tre	-580
▁ramp	-581
▁che	-582
▁dan	-583
▁high	-584
ful	-585
▁ad	-586
▁smile	-587
▁big	-588
ird	-589
▁players	-590
▁stri	-591
▁posing	-592
▁baseball	-593
umb	-594
▁sign	-595
ac	-596
ped	-597
▁outdoor	-598
▁them	-599
▁she	-600
▁motorcycle	-601
▁wooden	-602
▁ri	-603
▁han	-604
▁wet	-605
▁read	-606
▁spla	-607
▁dark	-608
▁je	-609
▁bal	-610
▁pants	-611
▁watches	-612
und	-613
▁horse	-614
▁ha	-615
▁arms	-616
▁color	-617
▁ride	-618
ces	-619
ire	-620
av	-621
▁trees	-622
▁couple	-623
ale	-624
▁af	-625
▁ag	-626
ries	-627
shirt	-628
ft	-629
ull	-630
▁bat	-631
pen	-632
▁cour	-633
ycl	-634
man	-635
▁rope	-636
▁rocky	-637
▁watching	-638
▁dri	-639
▁look	-640
▁bird	-641
▁flow	-642
ect	-643
▁rocks	-644
glasses	-645
▁whe	-646
▁suit	-647
▁no	-648
▁sunglasses	-649
bb	-650
use	-651
▁am	-652
▁bag	-653
▁str	-654
▁team	-655
▁cap	-656
▁coll	-657
▁hands	-658
ol	-659
▁racing	-660
tt	-661
▁watch	-662
ow	-663
▁fla	-664
aw	-665
up	-666
ant	-667
▁bes	-668
uck	-669
ckey	-670
▁jeans	-671
▁older	-672
by	-673
pack	-674
▁table	-675
▁towards	-676
iting	-677
▁splas	-678
▁beside	-679
▁backpack	-680
ater	-681
▁bus	-682
▁does	-683
▁open	-684
▁pose	-685
▁de	-686
▁adul	-687
▁who	-688
▁roll	-689
▁river	-690
▁kick	-691
▁lady	-692
▁cliff	-693
▁throw	-694
▁colorful	-695
▁snowboarder	-696
▁ice	-697
▁slid	-698
▁above	-699
ry	-700
▁ste	-701
dd	-702
▁"	-703
▁wind	-704
ired	-705
▁mud	-706
▁sto	-707
▁swe	-708
▁yard	-709
▁surround	-710
▁boo	-711
▁fight	-712
▁striped	-713
co	-714
ake	-715
▁tal	-716
▁outf	-717
ainst	-718
uring	-719
▁onto	-720
▁woods	-721
▁set	-722
▁against	-723
mp	-724
hoto	-725
▁photo	-726
▁taking	-727
▁blonde	-728
▁body	-729
▁after	-730
▁asian	-731
▁midair	-732
▁chair	-733
▁collar	-734
▁mountains	-735
eep	-736
ugh	-737
stum	-738
▁spr	-739
ather	-740
▁cross	-741
▁leaps	-742
very	-743
▁pain	-744
▁climbs	-745
▁costum	-746
▁hockey	-747
▁chasing	-748
ash	-749
▁fis	-750
▁lea	-751
▁gold	-752
▁rider	-753
ade	-754
▁can	-755
▁fountain	-756
ess	-757
▁tur	-758
yclist	-759
▁laying	-760
▁mar	-761
▁forest	-762
▁inside	-763
▁light	-764
▁wheel	-765
▁wrest	-766
▁smiles	-767
▁glasses	-768
pet	-769
▁li	-770
phone	-771
▁rest	-772
▁during	-773
loo	-774
right	-775
▁many	-776
ust	-777
uitar	-778
▁todd	-779
▁night	-780
▁guitar	-781
▁surrounded	-782
▁ed	-783
▁drin	-784
▁skier	-785
▁colored	-786
▁edge	-787
suit	-788
▁very	-789
▁board	-790
▁shore	-791
▁bright	-792
pping	-793
▁fire	-794
▁five	-795
▁hanging	-796
▁performing	-797
▁playground	-798
ject	-799
▁past	-800
▁sky	-801
▁takes	-802
▁others	-803
▁surfer	-804
lder	-805
▁bed	-806
▁laugh	-807
▁stair	-808
▁outdoors	-809
▁pro	-810
▁brick	-811
▁surfboard	-812
ell	-813
ner	-814
upp	-815
ilst	-816
▁show	-817
▁whilst	-818
▁window	-819
▁toddler	-820
▁pre	-821
▁brid	-822
▁object	-823
ted	-824
▁biker	-825
▁fall	-826
▁trying	-827
we	-828
ican	-829
▁away	-830
▁middle	-831
ty	-832
rap	-833
ation	-834
▁gray	-835
ace	-836
▁trail	-837
▁talking	-838
ep	-839
▁hu	-840
▁pole	-841
▁making	-842
rie	-843
uff	-844
ance	-845
▁pul	-846
less	-847
▁ear	-848
▁bear	-849
▁this	-850
rel	-851
▁en	-852
allow	-853
▁eating	-854
▁flying	-855
▁haired	-856
▁jers	-857
▁tall	-858
▁going	-859
▁train	-860
▁carries	-861
▁someone	-862
▁ey	-863
▁pupp	-864
▁about	-865
▁hik	-866
▁pus	-867
▁win	-868
▁line	-869
▁jersey	-870
▁clothes	-871
▁flowers	-872
▁lif	-873
▁sled	-874
▁outfit	-875
▁dancing	-876
▁cur	-877
▁floor	-878
▁leash	-879
▁course	-880
▁swinging	-881
ings	-882
▁bubb	-883
▁poin	-884
▁stone	-885
▁nearby	-886
aff	-887
imal	-888
stic	-889
▁pad	-890
▁bridge	-891
▁plastic	-892
th	-893
▁teen	-894
▁cr	-895
▁all	-896
hound	-897
▁steps	-898
▁animal	-899
▁shallow	-900
ive	-901
▁ve	-902
temp	-903
▁smo	-904
▁bott	-905
▁dist	-906
▁lean	-907
▁greyhound	-908
ily	-909
uct	-910
▁bet	-911
▁kay	-912
▁met	-913
▁rail	-914
▁poses	-915
▁leaping	-916
▁railing	-917
▁sliding	-918
fla	-919
stac	-920
▁blow	-921
▁tong	-922
▁obstac	-923
ny	-924
▁pi	-925
ween	-926
▁ret	-927
▁numb	-928
▁attemp	-929
▁between	-930
gg	-931
aper	-932
ched	-933
▁gear	-934
▁legs	-935
▁ready	-936
▁store	-937
▁waves	-938
▁shirts	-939
▁catches	-940
▁fighting	-941
zz	-942
▁spe	-943
▁star	-944
▁house	-945
▁splashing	-946
▁day	-947
▁fem	-948
uddle	-949
▁goal	-950
▁room	-951
▁climber	-952
▁costume	-953
▁overloo	-954
▁skateboarding	-955
ys	-956
▁cow	-957
▁dis	-958
erman	-959
▁land	-960
▁close	-961
▁tongue	-962
▁wor	-963
▁turn	-964
▁roller	-965
▁obstacle	-966
▁mat	-967
bor	-968
ley	-969
ding	-970
▁att	-971
▁lawn	-972
▁sandy	-973
▁swims	-974
▁golden	-975
▁swings	-976
▁cor	-977
▁band	-978
▁they	-979
▁trun	-980
▁leaves	-981
▁clothing	-982
iew	-983
▁compet	-984
▁winter	-985
ated	-986
▁sle	-987
▁ves	-988
▁tire	-989
▁metal	-990
▁jo	-991
▁si	-992
▁hur	-993
▁mas	-994
▁beard	-995
cre	-996
▁di	-997
▁hug	-998
▁wears	-999
▁ex	-1000
▁lot	-1001
▁umb	-1002
rella	-1003
▁male	-1004
▁adults	-1005
▁horses	-1006
▁umbrella	-1007
ti	-1008
els	-1009
▁ce	-1010
▁des	-1011
▁har	-1012
▁sil	-1013
▁door	-1014
▁adult	-1015
▁drink	-1016
▁makes	-1017
▁getting	-1018
sc	-1019
▁fur	-1020
▁female	-1021
▁drinking	-1022
▁or	-1023
ampol	-1024
crete	-1025
▁gets	-1026
ampoline	-1027
▁waiting	-1028
▁concrete	-1029
grap	-1030
▁pol	-1031
▁cell	-1032
▁skirt	-1033
▁stairs	-1034
▁catching	-1035
▁uniforms	-1036
▁trampoline	-1037
▁overlooking	-1038
ats	-1039
hic	-1040
uzz	-1041
▁pl	-1042
▁spo	-1043
▁skiing	-1044
▁upside	-1045
▁bathing	-1046
▁sweater	-1047
▁photograp	-1048
arf	-1049
tic	-1050
▁sub	-1051
▁prep	-1052
▁stream	-1053
▁wooded	-1054
▁leaning	-1055
▁ca	-1056
▁kis	-1057
▁vehic	-1058
▁pulling	-1059
▁distance	-1060
▁fol	-1061
▁rac	-1062
▁slo	-1063
▁eyes	-1064
▁huge	-1065
▁pass	-1066
▁view	-1067
▁laughing	-1068
str	-1069
▁box	-1070
▁bre	-1071
▁hoo	-1072
▁hats	-1073
▁chases	-1074
▁number	-1075
▁me	-1076
▁busy	-1077
▁elder	-1078
▁tricks	-1079
▁fishing	-1080
▁throwing	-1081
▁cellphone	-1082
▁cle	-1083
▁harn	-1084
▁spor	-1085
erican	-1086
▁sweat	-1087
▁shirtless	-1088
▁equ	-1089
▁life	-1090
▁flies	-1091
▁puppy	-1092
ws	-1093
pla	-1094
ates	-1095
ones	-1096
▁opp	-1097
▁tries	-1098
▁hurdle	-1099
▁retrie	-1100
▁performs	-1101
io	-1102
ons	-1103
▁muzz	-1104
▁nose	-1105
▁vest	-1106
▁puddle	-1107
▁pa	-1108
▁cano	-1109
▁deep	-1110
▁pond	-1111
▁tank	-1112
▁bubbles	-1113
ium	-1114
alle	-1115
▁app	-1116
▁stun	-1117
▁kayak	-1118
▁lying	-1119
▁truck	-1120
▁waterf	-1121
▁elderly	-1122
▁surfing	-1123
ares	-1124
▁put	-1125
▁rug	-1126
▁food	-1127
dge	-1128
sel	-1129
▁sn	-1130
▁bun	-1131
▁ref	-1132
▁dock	-1133
▁guys	-1134
▁take	-1135
▁muddy	-1136
▁paper	-1137
jo	-1138
ra	-1139
ym	-1140
aur	-1141
bla	-1142
▁al	-1143
▁dry	-1144
▁mus	-1145
▁pit	-1146
▁squ	-1147
▁book	-1148
▁flip	-1149
▁make	-1150
▁rain	-1151
▁tack	-1152
▁hiker	-1153
▁trunks	-1154
▁american	-1155
▁waterfall	-1156
▁sa	-1157
uits	-1158
ction	-1159
▁cart	-1160
▁mask	-1161
▁rais	-1162
ucture	-1163
▁court	-1164
▁equip	-1165
▁harness	-1166
▁reading	-1167
▁wetsuit	-1168
▁structure	-1169
iv	-1170
nds	-1171
nel	-1172
ents	-1173
▁cre	-1174
▁bags	-1175
▁both	-1176
▁enjo	-1177
▁feet	-1178
▁flag	-1179
▁hood	-1180
▁left	-1181
▁slope	-1182
▁slides	-1183
▁waters	-1184
▁equipment	-1185
▁rollerbla	-1186
mb	-1187
est	-1188
set	-1189
tte	-1190
ator	-1191
ping	-1192
▁gym	-1193
▁ter	-1194
ition	-1195
▁like	-1196
▁neck	-1197
▁shou	-1198
▁graff	-1199
▁infla	-1200
▁right	-1201
▁shoes	-1202
▁stunt	-1203
▁police	-1204
▁dresses	-1205
iti	-1206
line	-1207
ural	-1208
▁cig	-1209
▁kne	-1210
ading	-1211
table	-1212
▁raft	-1213
▁couch	-1214
▁flags	-1215
▁ledge	-1216
▁coming	-1217
▁follow	-1218
▁vehicle	-1219
▁shopping	-1220
os	-1221
ced	-1222
cor	-1223
ins	-1224
pes	-1225
▁ev	-1226
ists	-1227
▁low	-1228
▁bikes	-1229
▁falling	-1230
wing	-1231
▁art	-1232
▁form	-1233
▁tent	-1234
▁short	-1235
▁restaur	-1236
▁graffiti	-1237
ase	-1238
ini	-1239
head	-1240
▁bare	-1241
▁lone	-1242
▁ring	-1243
arette	-1244
▁biting	-1245
▁cement	-1246
▁subway	-1247
▁setting	-1248
▁cigarette	-1249
▁sweatshirt	-1250
▁dig	-1251
ached	-1252
▁skis	-1253
▁parade	-1254
▁parking	-1255
▁restaurant	-1256
ial	-1257
ube	-1258
avel	-1259
▁mon	-1260
▁padd	-1261
▁sing	-1262
icycle	-1263
▁canoe	-1264
▁scarf	-1265
▁sprink	-1266
▁inflatable	-1267
ban	-1268
mer	-1269
ome	-1270
▁gi	-1271
kers	-1272
▁ears	-1273
▁shep	-1274
▁stat	-1275
▁faces	-1276
▁hiking	-1277
▁underw	-1278
▁skating	-1279
op	-1280
herd	-1281
rier	-1282
▁cut	-1283
▁fam	-1284
▁hit	-1285
▁tou	-1286
borne	-1287
▁buck	-1288
▁gogg	-1289
▁pile	-1290
▁ballo	-1291
▁block	-1292
▁chairs	-1293
▁family	-1294
▁flower	-1295
▁german	-1296
▁indoor	-1297
▁driving	-1298
▁kicking	-1299
▁airborne	-1300
iz	-1301
ike	-1302
▁qu	-1303
aved	-1304
ghts	-1305
iece	-1306
▁ban	-1307
▁ele	-1308
▁pat	-1309
▁tun	-1310
▁blan	-1311
▁goes	-1312
▁tunnel	-1313
▁goggles	-1314
▁shepherd	-1315
ger	-1316
ips	-1317
ish	-1318
▁bow	-1319
▁log	-1320
allen	-1321
hered	-1322
▁bran	-1323
▁cheer	-1324
▁dance	-1325
▁using	-1326
▁blanket	-1327
▁crowded	-1328
ads	-1329
▁bm	-1330
▁ph	-1331
uffy	-1332
▁leg	-1333
aring	-1334
lored	-1335
▁bald	-1336
▁cars	-1337
▁home	-1338
▁lick	-1339
phones	-1340
▁balan	-1341
▁count	-1342
▁grind	-1343
▁fallen	-1344
▁silver	-1345
▁hugging	-1346
ong	-1347
▁six	-1348
▁boun	-1349
▁duck	-1350
▁have	-1351
▁boots	-1352
▁stuff	-1353
▁sunset	-1354
▁cyclist	-1355
▁jackets	-1356
▁pushing	-1357
▁pictures	-1358
ned	-1359
▁wr	-1360
ered	-1361
lers	-1362
yard	-1363
▁bmx	-1364
▁fet	-1365
▁gro	-1366
▁kit	-1367
▁mic	-1368
▁net	-1369
arden	-1370
nding	-1371
▁bull	-1372
▁held	-1373
▁pull	-1374
▁glass	-1375
▁music	-1376
▁scoot	-1377
▁speed	-1378
▁spray	-1379
▁drinks	-1380
▁garden	-1381
▁throws	-1382
▁leather	-1383
▁painted	-1384
▁splashes	-1385
ert	-1386
ort	-1387
▁ap	-1388
vers	-1389
▁mul	-1390
eping	-1391
▁crou	-1392
aching	-1393
▁kicks	-1394
▁micro	-1395
athered	-1396
▁displa	-1397
▁gather	-1398
▁sports	-1399
▁closeup	-1400
▁smaller	-1401
▁backyard	-1402
ha	-1403
ids	-1404
▁vol	-1405
▁fing	-1406
▁event	-1407
▁hangs	-1408
▁paint	-1409
covered	-1410
leyball	-1411
▁bottle	-1412
▁bucket	-1413
▁blowing	-1414
▁stuffed	-1415
▁surface	-1416
▁microphone	-1417
▁volleyball	-1418
mo	-1419
ane	-1420
arm	-1421
che	-1422
kes	-1423
ally	-1424
band	-1425
hill	-1426
ines	-1427
▁cont	-1428
▁scen	-1429
▁piece	-1430
yclists	-1431
▁carpet	-1432
▁diving	-1433
▁fluffy	-1434
▁statue	-1435
▁shaking	-1436
▁smoking	-1437
▁teenage	-1438
▁bicyclist	-1439
lic	-1440
ony	-1441
rack	-1442
▁end	-1443
▁few	-1444
▁glo	-1445
▁lap	-1446
▁tug	-1447
▁clear	-1448
▁cover	-1449
▁party	-1450
▁rugby	-1451
▁bikini	-1452
▁corner	-1453
na	-1454
ou	-1455
ape	-1456
ich	-1457
top	-1458
▁kn	-1459
ious	-1460
▁tat	-1461
▁hind	-1462
▁balls	-1463
▁below	-1464
▁furry	-1465
▁sunny	-1466
▁outfits	-1467
▁scooter	-1468
▁sticking	-1469
▁underwater	-1470
sed	-1471
ugg	-1472
ush	-1473
adow	-1474
▁but	-1475
aster	-1476
ators	-1477
▁full	-1478
▁plat	-1479
haired	-1480
▁bunch	-1481
▁suits	-1482
▁bicycles	-1483
▁gathered	-1484
▁prepares	-1485
▁sleeping	-1486
▁buildings	-1487
▁snowboarding	-1488
py	-1489
als	-1490
art	-1491
out	-1492
▁ind	-1493
illed	-1494
▁fast	-1495
▁lays	-1496
▁same	-1497
etrack	-1498
▁sticks	-1499
▁teenag	-1500
▁display	-1501
▁staring	-1502
▁wrestle	-1503
▁attempts	-1504
▁costumes	-1505
▁racetrack	-1506
▁wrestling	-1507
der	-1508
ore	-1509
ven	-1510
▁we	-1511
▁cup	-1512
▁fun	-1513
▁way	-1514
▁frie	-1515
▁pood	-1516
▁wide	-1517
▁bride	-1518
▁instr	-1519
▁phone	-1520
▁poles	-1521
▁spect	-1522
▁crossing	-1523
▁motorcyclist	-1524
gy	-1525
ls	-1526
ron	-1527
foot	-1528
rown	-1529
self	-1530
stre	-1531
▁hal	-1532
▁med	-1533
▁own	-1534
▁bath	-1535
▁seat	-1536
▁shot	-1537
▁soft	-1538
▁vide	-1539
▁chain	-1540
▁plaid	-1541
▁steep	-1542
▁bottom	-1543
▁dances	-1544
▁desert	-1545
▁attached	-1546
▁photograph	-1547
▁spectators	-1548
ige	-1549
ise	-1550
aked	-1551
chen	-1552
▁col	-1553
▁hap	-1554
▁lad	-1555
eling	-1556
rican	-1557
▁beer	-1558
▁hula	-1559
▁just	-1560
▁pick	-1561
▁sant	-1562
▁among	-1563
▁cowbo	-1564
▁rough	-1565
▁sheep	-1566
▁shoot	-1567
▁teams	-1568
▁video	-1569
▁fenced	-1570
▁racket	-1571
▁kitchen	-1572
▁barefoot	-1573
▁pointing	-1574
▁sprinkler	-1575
od	-1576
awk	-1577
ery	-1578
eth	-1579
ier	-1580
hawk	-1581
▁int	-1582
▁row	-1583
▁sch	-1584
▁wed	-1585
urban	-1586
▁pave	-1587
▁tube	-1588
▁wait	-1589
▁beige	-1590
▁float	-1591
▁stage	-1592
▁talks	-1593
▁appear	-1594
▁branch	-1595
▁mohawk	-1596
▁school	-1597
▁african	-1598
▁bearded	-1599
▁kissing	-1600
▁pavement	-1601
▁shoulder	-1602
▁swimsuit	-1603
▁greyhounds	-1604
too	-1605
ung	-1606
wor	-1607
ined	-1608
tted	-1609
ught	-1610
▁pet	-1611
tched	-1612
▁fair	-1613
▁fish	-1614
▁shop	-1615
▁cream	-1616
▁leans	-1617
▁offic	-1618
▁santa	-1619
▁which	-1620
▁tattoo	-1621
▁outstre	-1622
▁watersk	-1623
▁headband	-1624
▁attempting	-1625
▁competition	-1626
▁skateboards	-1627
br	-1628
aks	-1629
alm	-1630
ary	-1631
▁ac	-1632
ales	-1633
▁tri	-1634
affic	-1635
ctive	-1636
stand	-1637
▁card	-1638
▁grab	-1639
▁hits	-1640
▁hoop	-1641
▁slee	-1642
▁toys	-1643
▁dirty	-1644
▁heads	-1645
▁paved	-1646
▁racer	-1647
▁teeth	-1648
▁cowboy	-1649
▁facing	-1650
▁points	-1651
▁pushes	-1652
▁waving	-1653
▁instrum	-1654
▁traffic	-1655
▁headphones	-1656
az	-1657
rent	-1658
roll	-1659
▁rub	-1660
aches	-1661
fully	-1662
iding	-1663
▁hole	-1664
▁hose	-1665
▁pack	-1666
ession	-1667
inning	-1668
▁birds	-1669
▁round	-1670
colored	-1671
▁drives	-1672
▁gravel	-1673
▁ladies	-1674
▁market	-1675
▁wading	-1676
▁chewing	-1677
▁wedding	-1678
▁painting	-1679
▁platform	-1680
▁unicycle	-1681
ese	-1682
ute	-1683
whe	-1684
ette	-1685
ical	-1686
▁cla	-1687
▁hot	-1688
▁tro	-1689
▁eats	-1690
▁fore	-1691
▁wire	-1692
▁amuse	-1693
▁check	-1694
▁match	-1695
▁onloo	-1696
▁reads	-1697
▁cheerle	-1698
▁puppies	-1699
▁downhill	-1700
ds	-1701
fe	-1702
▁2	-1703
ien	-1704
ime	-1705
cher	-1706
ides	-1707
read	-1708
rist	-1709
▁atv	-1710
▁bea	-1711
▁emp	-1712
▁pub	-1713
▁ran	-1714
▁rap	-1715
scape	-1716
▁bars	-1717
▁cand	-1718
▁moto	-1719
▁news	-1720
▁oppo	-1721
▁prof	-1722
▁wake	-1723
▁rural	-1724
▁sniff	-1725
▁waits	-1726
▁bubble	-1727
▁goalie	-1728
▁public	-1729
▁splash	-1730
▁balloon	-1731
▁showing	-1732
▁brightly	-1733
▁motocross	-1734
▁onlookers	-1735
fet	-1736
hle	-1737
usk	-1738
ails	-1739
▁beg	-1740
▁dun	-1741
▁hay	-1742
▁lit	-1743
▁pra	-1744
▁comp	-1745
▁hard	-1746
ricket	-1747
▁beaut	-1748
▁boats	-1749
▁cloud	-1750
▁curly	-1751
▁decor	-1752
▁purse	-1753
▁scene	-1754
▁urban	-1755
▁bandan	-1756
▁parked	-1757
▁cricket	-1758
▁resting	-1759
▁younger	-1760
▁amusement	-1761
▁landscape	-1762
▁retriever	-1763
ns	-1764
ber	-1765
ied	-1766
iful	-1767
irst	-1768
▁emb	-1769
▁fly	-1770
▁see	-1771
chair	-1772
wards	-1773
▁blur	-1774
▁cree	-1775
▁leaf	-1776
▁toss	-1777
▁work	-1778
▁empty	-1779
▁newsp	-1780
▁races	-1781
▁ropes	-1782
▁where	-1783
▁wings	-1784
▁lights	-1785
▁parach	-1786
▁poodle	-1787
▁seated	-1788
▁stroll	-1789
▁digging	-1790
▁helmets	-1791
▁rolling	-1792
▁bandanna	-1793
▁wrestler	-1794
▁beautiful	-1795
▁handstand	-1796
mas	-1797
aped	-1798
back	-1799
iant	-1800
ashes	-1801
▁drum	-1802
▁pier	-1803
▁post	-1804
▁terr	-1805
▁athle	-1806
▁refle	-1807
▁signs	-1808
▁christ	-1809
▁filled	-1810
▁gloves	-1811
▁hikers	-1812
▁mother	-1813
▁motorb	-1814
▁pulled	-1815
▁rapids	-1816
▁shadow	-1817
▁grinding	-1818
▁opposing	-1819
▁softball	-1820
▁cheerlead	-1821
▁formation	-1822
irc	-1823
niv	-1824
▁aud	-1825
▁exp	-1826
▁rod	-1827
▁sum	-1828
erent	-1829
ience	-1830
nival	-1831
▁deck	-1832
▁half	-1833
▁heav	-1834
▁jeep	-1835
▁rela	-1836
▁scre	-1837
▁shov	-1838
▁talk	-1839
▁bound	-1840
▁creek	-1841
▁pract	-1842
▁third	-1843
▁having	-1844
▁jockey	-1845
▁paddle	-1846
▁carnival	-1847
▁matching	-1848
▁shooting	-1849
▁wakeboard	-1850
▁outstretched	-1851
ib	-1852
▁z	-1853
ric	-1854
▁gl	-1855
▁tw	-1856
pped	-1857
quet	-1858
▁bur	-1859
▁cas	-1860
▁ent	-1861
▁gun	-1862
▁try	-1863
adium	-1864
▁circ	-1865
▁diff	-1866
▁dire	-1867
▁mach	-1868
▁chase	-1869
▁giant	-1870
▁plate	-1871
▁relax	-1872
▁smoke	-1873
▁stret	-1874
▁giving	-1875
▁mouths	-1876
▁runner	-1877
▁skates	-1878
▁tackle	-1879
▁thrown	-1880
▁appears	-1881
▁licking	-1882
▁stadium	-1883
▁paddling	-1884
▁christmas	-1885
▁different	-1886
▁profession	-1887
▁wheelchair	-1888
ars	-1889
eds	-1890
ens	-1891
ges	-1892
hou	-1893
int	-1894
ser	-1895
ved	-1896
bile	-1897
boat	-1898
case	-1899
ites	-1900
land	-1901
rail	-1902
room	-1903
▁eye	-1904
▁gar	-1905
▁nat	-1906
▁paw	-1907
▁tow	-1908
▁atop	-1909
▁hang	-1910
▁lies	-1911
▁ribb	-1912
▁seen	-1913
ashing	-1914
▁clown	-1915
▁funny	-1916
▁raises	-1917
▁animals	-1918
▁hitting	-1919
▁singing	-1920
▁terrain	-1921
▁floating	-1922
▁reaching	-1923
▁alongside	-1924
▁backpacks	-1925
▁balancing	-1926
arp	-1927
ays	-1928
des	-1929
▁pr	-1930
fore	-1931
ured	-1932
▁mil	-1933
▁ped	-1934
▁pig	-1935
apped	-1936
lders	-1937
▁drag	-1938
▁pige	-1939
▁skin	-1940
struct	-1941
▁backs	-1942
▁drive	-1943
▁falls	-1944
▁prote	-1945
▁straw	-1946
▁before	-1947
▁bushes	-1948
▁enjoys	-1949
▁finger	-1950
▁larger	-1951
▁moving	-1952
▁plants	-1953
▁riders	-1954
▁silhou	-1955
▁putting	-1956
▁spotted	-1957
▁competing	-1958
▁construct	-1959
▁newspaper	-1960
▁professional	-1961
▁rollerblades	-1962
cl	-1963
key	-1964
▁vi	-1965
alls	-1966
fety	-1967
nded	-1968
▁lab	-1969
▁sea	-1970
▁siz	-1971
flage	-1972
▁cone	-1973
▁craw	-1974
▁mark	-1975
▁shag	-1976
▁step	-1977
▁blows	-1978
▁break	-1979
▁camou	-1980
▁class	-1981
▁cloth	-1982
▁mound	-1983
▁seven	-1984
▁shows	-1985
▁surfs	-1986
▁bikers	-1987
▁hooded	-1988
▁jumped	-1989
▁safety	-1990
▁shakes	-1991
▁counter	-1992
▁indoors	-1993
▁muzzled	-1994
▁station	-1995
▁audience	-1996
▁handrail	-1997
▁splashed	-1998
▁playfully	-1999
▁preparing	-2000
▁teenagers	-2001
▁camouflage	-2002
▁photographer	-2003
go	-2004
cks	-2005
gon	-2006
per	-2007
▁mi	-2008
item	-2009
vert	-2010
▁dev	-2011
osite	-2012
ticip	-2013
▁hall	-2014
▁item	-2015
▁part	-2016
▁pipe	-2017
▁spid	-2018
▁stop	-2019
▁warm	-2020
▁alone	-2021
▁chest	-2022
▁coats	-2023
▁gives	-2024
▁lined	-2025
▁owner	-2026
▁peace	-2027
▁comput	-2028
▁flight	-2029
▁friend	-2030
▁hoodie	-2031
▁muzzle	-2032
▁shaggy	-2033
▁barrier	-2034
▁doorway	-2035
▁follows	-2036
▁himself	-2037
▁landing	-2038
▁passing	-2039
▁terrier	-2040
▁writing	-2041
▁climbers	-2042
▁spinning	-2043
▁instruments	-2044
▁construction	-2045
que	-2046
▁im	-2047
▁tu	-2048
eree	-2049
olin	-2050
ring	-2051
▁den	-2052
▁fan	-2053
arrow	-2054
cting	-2055
ickly	-2056
light	-2057
stage	-2058
▁bite	-2059
▁chee	-2060
▁cold	-2061
▁gymn	-2062
▁puts	-2063
▁sail	-2064
▁says	-2065
▁stud	-2066
▁wrap	-2067
headed	-2068
▁carri	-2069
▁naked	-2070
▁pulls	-2071
▁these	-2072
▁trunk	-2073
▁laughs	-2074
▁neckla	-2075
▁violin	-2076
▁country	-2077
▁pigeons	-2078
▁practic	-2079
▁quickly	-2080
▁referee	-2081
▁covering	-2082
▁opposite	-2083
▁overalls	-2084
▁motorbike	-2085
▁shoulders	-2086
▁foreground	-2087
▁motorcycles	-2088
eo	-2089
of	-2090
pl	-2091
▁;	-2092
men	-2093
zen	-2094
tial	-2095
tico	-2096
▁coo	-2097
▁din	-2098
▁jet	-2099
▁raf	-2100
▁sus	-2101
▁tie	-2102
ility	-2103
▁bank	-2104
▁gate	-2105
▁kite	-2106
▁pony	-2107
▁soon	-2108
▁uses	-2109
▁denim	-2110
▁ducks	-2111
▁fetch	-2112
▁range	-2113
▁wagon	-2114
▁advert	-2115
▁caught	-2116
▁collie	-2117
▁headsc	-2118
▁huddle	-2119
▁medium	-2120
▁rubber	-2121
▁skiers	-2122
▁squirt	-2123
▁string	-2124
▁barking	-2125
▁martial	-2126
▁multico	-2127
▁wheelie	-2128
▁computer	-2129
▁direction	-2130
▁staircase	-2131
so	-2132
sp	-2133
ang	-2134
ged	-2135
oms	-2136
tes	-2137
▁bou	-2138
▁cho	-2139
▁dro	-2140
▁ext	-2141
▁jog	-2142
▁lay	-2143
▁rob	-2144
▁var	-2145
ering	-2146
ident	-2147
▁camp	-2148
▁dead	-2149
▁dust	-2150
▁jack	-2151
▁jean	-2152
▁memb	-2153
elling	-2154
▁appro	-2155
▁dribb	-2156
▁frame	-2157
▁hoops	-2158
▁rodeo	-2159
▁spots	-2160
▁suspe	-2161
▁thumb	-2162
▁tires	-2163
▁frozen	-2164
▁grocer	-2165
▁kneels	-2166
▁skater	-2167
▁tracks	-2168
▁jerseys	-2169
▁reaches	-2170
▁crashing	-2171
▁crouches	-2172
▁enjoying	-2173
▁kneeling	-2174
▁particip	-2175
▁waterski	-2176
▁headscarf	-2177
▁parachute	-2178
▁rollerblading	-2179
cy	-2180
ky	-2181
▁3	-2182
com	-2183
igh	-2184
val	-2185
▁ic	-2186
uses	-2187
▁mer	-2188
▁nav	-2189
▁tut	-2190
itary	-2191
▁bowl	-2192
▁curb	-2193
▁emer	-2194
▁hike	-2195
▁kiss	-2196
▁made	-2197
▁only	-2198
▁paws	-2199
▁hills	-2200
▁multi	-2201
▁shown	-2202
▁sized	-2203
▁tight	-2204
▁clouds	-2205
▁driver	-2206
▁easter	-2207
▁formal	-2208
▁grinds	-2209
▁makeup	-2210
▁monkey	-2211
▁screen	-2212
▁snowmo	-2213
▁fingers	-2214
▁machine	-2215
▁onstage	-2216
▁paddles	-2217
▁turning	-2218
▁walkway	-2219
▁watched	-2220
▁balances	-2221
▁balloons	-2222
▁cyclists	-2223
▁touching	-2224
▁tricycle	-2225
▁decorated	-2226
▁mountainside	-2227
sk	-2228
elf	-2229
let	-2230
nic	-2231
ous	-2232
ues	-2233
aken	-2234
izon	-2235
ners	-2236
▁fig	-2237
▁new	-2238
▁war	-2239
house	-2240
plane	-2241
ungle	-2242
▁balc	-2243
▁beam	-2244
▁disc	-2245
▁embr	-2246
▁flor	-2247
▁list	-2248
▁mess	-2249
▁pump	-2250
▁wild	-2251
▁bites	-2252
▁desce	-2253
▁elect	-2254
▁guard	-2255
▁reach	-2256
▁sides	-2257
▁taken	-2258
▁blurry	-2259
▁closed	-2260
▁jungle	-2261
▁skirts	-2262
▁smokes	-2263
▁travel	-2264
▁helping	-2265
▁muzzles	-2266
▁hillside	-2267
▁kayaking	-2268
▁sniffing	-2269
▁training	-2270
▁surrounding	-2271
da	-2272
bow	-2273
clo	-2274
cts	-2275
ppy	-2276
▁ok	-2277
dder	-2278
eled	-2279
ffee	-2280
pily	-2281
ular	-2282
▁eat	-2283
▁fli	-2284
▁pen	-2285
▁scr	-2286
▁ser	-2287
▁tho	-2288
aling	-2289
ening	-2290
estri	-2291
illow	-2292
ining	-2293
neath	-2294
▁bend	-2295
▁case	-2296
▁cave	-2297
▁dune	-2298
▁dusk	-2299
▁lots	-2300
▁pair	-2301
▁pine	-2302
▁rink	-2303
▁shoe	-2304
▁soda	-2305
▁apple	-2306
▁chews	-2307
▁flips	-2308
▁inter	-2309
▁leads	-2310
▁obser	-2311
▁rests	-2312
▁sharp	-2313
▁teamm	-2314
▁biking	-2315
▁coffee	-2316
▁figure	-2317
▁ladder	-2318
▁shower	-2319
▁balcony	-2320
▁grocery	-2321
▁happily	-2322
▁horizon	-2323
▁sooners	-2324
▁streets	-2325
▁swimmer	-2326
▁working	-2327
▁fetching	-2328
▁military	-2329
▁necklace	-2330
▁stroller	-2331
▁backwards	-2332
▁suspended	-2333
▁bicyclists	-2334
▁practicing	-2335
▁silhouette	-2336
▁underneath	-2337
lf	-2338
me	-2339
ot	-2340
ami	-2341
ely	-2342
ggy	-2343
ulp	-2344
▁da	-2345
▁ty	-2346
bull	-2347
cent	-2348
down	-2349
ians	-2350
nert	-2351
road	-2352
ront	-2353
▁cro	-2354
▁pin	-2355
▁por	-2356
▁tab	-2357
▁vis	-2358
alley	-2359
awing	-2360
entle	-2361
tails	-2362
tyard	-2363
▁fold	-2364
▁knit	-2365
▁scub	-2366
▁swor	-2367
▁beads	-2368
▁cheek	-2369
▁curve	-2370
▁heavy	-2371
▁licks	-2372
▁miami	-2373
▁paras	-2374
▁patch	-2375
▁place	-2376
▁rolls	-2377
▁sculp	-2378
▁sheet	-2379
▁stump	-2380
▁action	-2381
▁barrel	-2382
▁colors	-2383
▁gentle	-2384
▁innert	-2385
▁passes	-2386
▁ribbon	-2387
▁rowing	-2388
▁spread	-2389
▁thumbs	-2390
▁coaster	-2391
▁forward	-2392
▁gymnast	-2393
▁jogging	-2394
▁leashes	-2395
▁picking	-2396
▁rainbow	-2397
▁sandals	-2398
▁bouncing	-2399
▁homeless	-2400
▁cardboard	-2401
▁courtyard	-2402
▁redheaded	-2403
▁sculpture	-2404
▁shoreline	-2405
▁mountaintop	-2406
▁waterskiing	-2407
ma	-2408
▁5	-2409
gie	-2410
ics	-2411
ino	-2412
lit	-2413
umn	-2414
▁ge	-2415
aged	-2416
bing	-2417
cord	-2418
dles	-2419
ersk	-2420
ible	-2421
ital	-2422
oney	-2423
rope	-2424
▁aqu	-2425
▁aut	-2426
▁mag	-2427
▁not	-2428
▁pee	-2429
▁you	-2430
itten	-2431
place	-2432
ument	-2433
▁also	-2434
▁brun	-2435
▁cast	-2436
▁cent	-2437
▁chew	-2438
▁corn	-2439
▁fake	-2440
▁flam	-2441
▁jugg	-2442
▁knee	-2443
▁spar	-2444
illing	-2445
▁ahead	-2446
▁apron	-2447
▁camel	-2448
▁colle	-2449
▁enclo	-2450
▁flock	-2451
▁helps	-2452
▁money	-2453
▁moves	-2454
▁scuba	-2455
▁sport	-2456
▁toile	-2457
▁trash	-2458
▁itself	-2459
▁raised	-2460
▁shaped	-2461
▁though	-2462
▁valley	-2463
▁agility	-2464
▁catcher	-2465
▁contain	-2466
▁crosses	-2467
▁embrace	-2468
▁friends	-2469
▁leaving	-2470
▁officer	-2471
▁racquet	-2472
▁touches	-2473
▁various	-2474
▁without	-2475
▁workers	-2476
▁dribbles	-2477
▁flowered	-2478
▁rollersk	-2479
▁snowball	-2480
▁teenager	-2481
▁crosswalk	-2482
▁following	-2483
▁gathering	-2484
▁snowmobile	-2485
▁4	-2486
▁8	-2487
▁i	-2488
aps	-2489
lah	-2490
lly	-2491
lor	-2492
ual	-2493
udy	-2494
xed	-2495
ades	-2496
cial	-2497
hood	-2498
iger	-2499
inis	-2500
itor	-2501
ized	-2502
most	-2503
▁arc	-2504
▁dob	-2505
▁ges	-2506
▁pan	-2507
▁pir	-2508
▁tul	-2509
first	-2510
ising	-2511
▁amid	-2512
▁arts	-2513
▁cafe	-2514
▁cake	-2515
▁farm	-2516
▁foam	-2517
▁lead	-2518
▁move	-2519
▁neon	-2520
▁palm	-2521
▁peak	-2522
▁puck	-2523
▁swan	-2524
▁trip	-2525
▁type	-2526
▁well	-2527
tially	-2528
▁cones	-2529
▁eleph	-2530
▁first	-2531
▁geese	-2532
▁image	-2533
▁merry	-2534
▁plane	-2535
▁prete	-2536
▁skull	-2537
▁strip	-2538
▁tiger	-2539
▁vests	-2540
▁almost	-2541
▁blocks	-2542
▁boogie	-2543
▁device	-2544
▁father	-2545
▁kisses	-2546
▁motion	-2547
▁picnic	-2548
▁pillow	-2549
▁stares	-2550
▁worker	-2551
▁hallway	-2552
▁herself	-2553
▁jockeys	-2554
▁petting	-2555
▁stripes	-2556
▁surfers	-2557
▁tattoos	-2558
▁bathroom	-2559
▁doberman	-2560
▁vehicles	-2561
▁innertube	-2562
▁partially	-2563
▁spiderman	-2564
▁protective	-2565
▁sprinklers	-2566
▁cheerleaders	-2567
▁multicolored	-2568
hd	-2569
ka	-2570
pt	-2571
▁1	-2572
act	-2573
amb	-2574
bat	-2575
oma	-2576
yle	-2577
agle	-2578
apan	-2579
cers	-2580
illy	-2581
irro	-2582
ited	-2583
leep	-2584
like	-2585
ster	-2586
▁bad	-2587
▁dim	-2588
▁fle	-2589
▁how	-2590
▁pot	-2591
▁res	-2592
▁tag	-2593
abric	-2594
apers	-2595
dress	-2596
eding	-2597
front	-2598
icket	-2599
ights	-2600
▁been	-2601
▁caps	-2602
▁chur	-2603
▁defe	-2604
▁garb	-2605
▁help	-2606
▁loun	-2607
▁port	-2608
▁scar	-2609
▁tail	-2610
▁thin	-2611
▁time	-2612
▁trav	-2613
▁tutu	-2614
▁what	-2615
lahoma	-2616
selves	-2617
▁booth	-2618
▁candy	-2619
▁clean	-2620
▁enjoy	-2621
▁foggy	-2622
▁happy	-2623
▁japan	-2624
▁mirro	-2625
▁polka	-2626
▁retur	-2627
▁shade	-2628
▁spark	-2629
▁stuck	-2630
▁touch	-2631
▁turns	-2632
▁arcade	-2633
▁asleep	-2634
▁attack	-2635
▁attire	-2636
▁begins	-2637
▁bounce	-2638
▁boxing	-2639
▁cloudy	-2640
▁crawls	-2641
▁handle	-2642
▁intera	-2643
▁racers	-2644
▁shaved	-2645
▁square	-2646
▁tulips	-2647
▁turned	-2648
▁attempt	-2649
▁compete	-2650
▁convers	-2651
▁eastern	-2652
▁feather	-2653
▁gesture	-2654
▁marking	-2655
▁pitbull	-2656
▁tackled	-2657
▁wrapped	-2658
▁airplane	-2659
▁breaking	-2660
▁brunette	-2661
▁carriage	-2662
▁japanese	-2663
▁marching	-2664
▁officers	-2665
▁oklahoma	-2666
▁speaking	-2667
▁students	-2668
▁tackling	-2669
▁teammate	-2670
▁crouching	-2671
▁gentleman	-2672
▁headfirst	-2673
▁policeman	-2674
▁retrieving	-2675
▁themselves	-2676
▁cheerleader	-2677
▁rollerblader	-2678
fa	-2679
cut	-2680
gre	-2681
ilt	-2682
ken	-2683
▁ke	-2684
gers	-2685
ider	-2686
ield	-2687
▁ble	-2688
▁eng	-2689
▁hum	-2690
▁loc	-2691
▁mom	-2692
▁pun	-2693
▁van	-2694
andel	-2695
arate	-2696
fight	-2697
ifier	-2698
pless	-2699
wning	-2700
▁bill	-2701
▁cran	-2702
▁digs	-2703
▁foli	-2704
▁gall	-2705
▁husk	-2706
▁link	-2707
▁lips	-2708
▁rear	-2709
▁roof	-2710
▁ship	-2711
▁sofa	-2712
▁spot	-2713
▁tile	-2714
▁tour	-2715
▁town	-2716
ighbor	-2717
▁alley	-2718
▁coach	-2719
▁dives	-2720
▁flops	-2721
▁fruit	-2722
▁groom	-2723
▁ident	-2724
▁knees	-2725
▁leafy	-2726
▁plain	-2727
▁plant	-2728
▁ponyt	-2729
▁porch	-2730
▁broken	-2731
▁comple	-2732
▁fabric	-2733
▁fishes	-2734
▁floats	-2735
▁houses	-2736
▁indian	-2737
▁inline	-2738
▁narrow	-2739
▁pirate	-2740
▁wheels	-2741
▁candles	-2742
▁crossed	-2743
▁gallery	-2744
▁playpen	-2745
▁rafting	-2746
▁raising	-2747
▁scaling	-2748
▁strange	-2749
▁branches	-2750
▁markings	-2751
▁monument	-2752
▁neighbor	-2753
▁pigtails	-2754
▁relaxing	-2755
▁snowsuit	-2756
▁woodland	-2757
▁listening	-2758
▁swimsuits	-2759
▁wrestlers	-2760
▁neighborhood	-2761
ia	-2762
aki	-2763
ama	-2764
aul	-2765
den	-2766
med	-2767
rol	-2768
tle	-2769
ton	-2770
tub	-2771
▁su	-2772
▁yo	-2773
cond	-2774
eath	-2775
hday	-2776
hers	-2777
late	-2778
lebr	-2779
ways	-2780
▁exc	-2781
▁far	-2782
▁hut	-2783
▁icy	-2784
▁pac	-2785
▁pow	-2786
▁sla	-2787
akers	-2788
ashed	-2789
ature	-2790
aying	-2791
omach	-2792
rench	-2793
stick	-2794
▁aged	-2795
▁bagp	-2796
▁birt	-2797
▁golf	-2798
▁lock	-2799
▁lugg	-2800
▁mane	-2801
▁quar	-2802
▁rece	-2803
▁skim	-2804
▁sumo	-2805
▁supp	-2806
▁tool	-2807
▁tops	-2808
ection	-2809
▁apart	-2810
▁cards	-2811
▁comes	-2812
▁drums	-2813
▁pitch	-2814
▁point	-2815
▁sheer	-2816
▁towel	-2817
▁tuxed	-2818
▁winds	-2819
▁amidst	-2820
▁celebr	-2821
▁center	-2822
▁chased	-2823
▁church	-2824
▁crying	-2825
▁daught	-2826
▁floral	-2827
▁karate	-2828
▁mirror	-2829
▁second	-2830
▁speaks	-2831
▁swords	-2832
▁tables	-2833
▁toilet	-2834
▁bathtub	-2835
▁benches	-2836
▁bending	-2837
▁beneath	-2838
▁brother	-2839
▁camping	-2840
▁feeding	-2841
▁foliage	-2842
▁kayaker	-2843
▁luggage	-2844
▁members	-2845
▁natural	-2846
▁pouring	-2847
▁scarves	-2848
▁skinned	-2849
▁sprayed	-2850
▁stomach	-2851
▁tossing	-2852
▁athletic	-2853
▁birthday	-2854
▁numbered	-2855
▁pedestri	-2856
▁ponytail	-2857
▁sledding	-2858
▁spraying	-2859
▁boardwalk	-2860
fo	-2861
tr	-2862
can	-2863
car	-2864
jam	-2865
ups	-2866
ache	-2867
aded	-2868
ared	-2869
bank	-2870
gged	-2871
iers	-2872
ific	-2873
ikes	-2874
ilar	-2875
ipes	-2876
ised	-2877
ivid	-2878
ndor	-2879
ored	-2880
pper	-2881
urky	-2882
view	-2883
work	-2884
▁aer	-2885
▁aim	-2886
▁ass	-2887
▁gaz	-2888
▁inf	-2889
▁pos	-2890
▁sec	-2891
▁sim	-2892
▁sne	-2893
▁too	-2894
count	-2895
iring	-2896
jamas	-2897
nders	-2898
tting	-2899
wheel	-2900
▁barn	-2901
▁bush	-2902
▁cape	-2903
▁dalm	-2904
▁doll	-2905
▁fans	-2906
▁flat	-2907
▁inte	-2908
▁laun	-2909
▁lift	-2910
▁meet	-2911
▁mini	-2912
▁most	-2913
▁pale	-2914
▁plan	-2915
▁push	-2916
▁seag	-2917
▁slip	-2918
▁stra	-2919
▁tele	-2920
▁tied	-2921
▁wine	-2922
achers	-2923
capped	-2924
▁bever	-2925
▁camer	-2926
▁carry	-2927
▁chick	-2928
▁eight	-2929
▁every	-2930
▁fancy	-2931
▁glove	-2932
▁hikes	-2933
▁magaz	-2934
▁maneu	-2935
▁mural	-2936
▁murky	-2937
▁obama	-2938
▁patio	-2939
▁print	-2940
▁pumpk	-2941
▁ridge	-2942
▁silly	-2943
▁spins	-2944
▁stops	-2945
▁whist	-2946
country	-2947
ustache	-2948
▁artist	-2949
▁autumn	-2950
▁banner	-2951
▁batman	-2952
▁camels	-2953
▁circle	-2954
▁dandel	-2955
▁fisher	-2956
▁patter	-2957
▁ridden	-2958
▁shovel	-2959
▁skimpy	-2960
▁skinny	-2961
▁sniffs	-2962
▁speeds	-2963
▁tripod	-2964
▁vendor	-2965
▁athlete	-2966
▁balance	-2967
▁boulder	-2968
▁buckets	-2969
▁drawing	-2970
▁females	-2971
▁individ	-2972
▁leading	-2973
▁pajamas	-2974
▁quarter	-2975
▁runners	-2976
▁topless	-2977
▁visible	-2978
▁boarding	-2979
▁elephant	-2980
▁flipping	-2981
▁grabbing	-2982
▁railings	-2983
▁sideways	-2984
▁sneakers	-2985
▁starting	-2986
▁bleachers	-2987
▁checkered	-2988
▁dandelion	-2989
▁uniformed	-2990
▁instrument	-2991
▁reflection	-2992
▁reflective	-2993
▁wakeboarding	-2994
ms	-2995
za	-2996
▁#	-2997
bed	-2998
for	-2999
gee	-3000
hat	-3001
ipe	-3002
mon	-3003
nam	-3004
uch	-3005
▁kh	-3006
▁py	-3007
ames	-3008
clud	-3009
ened	-3010
fire	-3011
fold	-3012
hand	-3013
ints	-3014
test	-3015
wood	-3016
▁dot	-3017
▁fat	-3018
▁rep	-3019
▁sup	-3020
▁tar	-3021
▁tub	-3022
▁wig	-3023
ellow	-3024
ister	-3025
ither	-3026
locks	-3027
orted	-3028
▁aqua	-3029
▁deer	-3030
▁desk	-3031
▁elev	-3032
▁goat	-3033
▁grow	-3034
▁musc	-3035
▁oper	-3036
▁robe	-3037
▁rows	-3038
▁wand	-3039
atting	-3040
inging	-3041
▁blind	-3042
▁brush	-3043
▁bunny	-3044
▁chalk	-3045
▁crane	-3046
▁dread	-3047
▁explo	-3048
▁navig	-3049
▁oppon	-3050
▁parka	-3051
▁plaza	-3052
▁sings	-3053
▁stare	-3054
▁still	-3055
▁stool	-3056
▁waist	-3057
itional	-3058
▁barren	-3059
▁beagle	-3060
▁bounds	-3061
▁brides	-3062
▁chains	-3063
▁colour	-3064
▁concer	-3065
▁flames	-3066
▁infant	-3067
▁inters	-3068
▁jumper	-3069
▁laptop	-3070
▁lounge	-3071
▁marker	-3072
▁meadow	-3073
▁office	-3074
▁played	-3075
▁scales	-3076
▁single	-3077
▁slight	-3078
▁soaked	-3079
▁target	-3080
▁ticket	-3081
▁bikinis	-3082
▁casting	-3083
▁distant	-3084
▁gliding	-3085
▁handles	-3086
▁pitcher	-3087
▁protest	-3088
▁seagull	-3089
▁similar	-3090
▁skyline	-3091
▁windows	-3092
▁crouched	-3093
▁daughter	-3094
▁driveway	-3095
▁followed	-3096
▁interest	-3097
▁pacifier	-3098
▁position	-3099
▁straight	-3100
▁swimmers	-3101
▁trotting	-3102
▁advertise	-3103
▁blindfold	-3104
▁fountains	-3105
▁identical	-3106
▁musicians	-3107
▁retrieves	-3108
▁shoveling	-3109
▁traveling	-3110
▁umbrellas	-3111
▁underwear	-3112
▁dreadlocks	-3113
▁advertising	-3114
▁countryside	-3115
▁photographs	-3116
▁intersection	-3117
aft	-3118
die	-3119
een	-3120
erc	-3121
ked	-3122
quo	-3123
urs	-3124
war	-3125
ador	-3126
long	-3127
port	-3128
sion	-3129
skin	-3130
ston	-3131
stro	-3132
time	-3133
uals	-3134
▁act	-3135
▁adm	-3136
▁bor	-3137
▁dom	-3138
▁gal	-3139
▁inc	-3140
▁jew	-3141
▁mug	-3142
▁sat	-3143
▁shr	-3144
ental	-3145
esses	-3146
etted	-3147
iness	-3148
otard	-3149
useum	-3150
▁arch	-3151
▁army	-3152
▁asce	-3153
▁bean	-3154
▁bone	-3155
▁bump	-3156
▁bund	-3157
▁cage	-3158
▁cats	-3159
▁comm	-3160
▁cook	-3161
▁cows	-3162
▁dish	-3163
▁exam	-3164
▁exte	-3165
▁hosp	-3166
▁hugs	-3167
▁jogs	-3168
▁lass	-3169
▁logs	-3170
▁mass	-3171
▁meal	-3172
▁pian	-3173
▁pizz	-3174
▁poun	-3175
▁prod	-3176
▁rust	-3177
▁sets	-3178
▁shel	-3179
▁shoo	-3180
▁suck	-3181
▁trad	-3182
ailing	-3183
colate	-3184
filled	-3185
▁barks	-3186
▁diver	-3187
▁exerc	-3188
▁flute	-3189
▁heels	-3190
▁husky	-3191
▁khaki	-3192
▁masks	-3193
▁overh	-3194
▁power	-3195
▁robes	-3196
▁space	-3197
▁stove	-3198
▁style	-3199
▁tents	-3200
▁wades	-3201
cordion	-3202
skinned	-3203
▁bungee	-3204
▁butter	-3205
▁button	-3206
▁either	-3207
▁fellow	-3208
▁includ	-3209
▁kiddie	-3210
▁living	-3211
▁marked	-3212
▁mostly	-3213
▁museum	-3214
▁native	-3215
▁sleeps	-3216
▁sleeve	-3217
▁strugg	-3218
▁summer	-3219
▁uphill	-3220
▁blurred	-3221
▁bottles	-3222
▁collars	-3223
▁control	-3224
▁emerges	-3225
▁express	-3226
▁heavily	-3227
▁hurdles	-3228
▁leotard	-3229
▁pathway	-3230
▁poodles	-3231
▁relaxes	-3232
▁ribbons	-3233
▁rowboat	-3234
▁tuxedos	-3235
▁weather	-3236
▁bridesma	-3237
▁business	-3238
▁electron	-3239
▁enclosed	-3240
▁floaties	-3241
▁gestures	-3242
▁hospital	-3243
▁parachut	-3244
▁railroad	-3245
▁slightly	-3246
▁sunlight	-3247
▁trashcan	-3248
▁accordion	-3249
▁chocolate	-3250
▁colourful	-3251
▁firefight	-3252
▁fireplace	-3253
▁fisherman	-3254
▁horseback	-3255
▁interview	-3256
▁stretches	-3257
▁descending	-3258
▁snowcapped	-3259
▁waterskier	-3260
▁approaching	-3261
▁traditional	-3262
▁photographed	-3263
▁advertisement	-3264
▁rollerskating	-3265
▁skateboarders	-3266
be	-3267
je	-3268
ams	-3269
ata	-3270
bag	-3271
ble	-3272
cro	-3273
ife	-3274
ift	-3275
ina	-3276
iny	-3277
lig	-3278
ory	-3279
riz	-3280
unk	-3281
urf	-3282
yon	-3283
▁eu	-3284
▁gn	-3285
▁ma	-3286
▁tv	-3287
▁ya	-3288
acks	-3289
ages	-3290
cked	-3291
coat	-3292
esti	-3293
girl	-3294
icle	-3295
ison	-3296
itch	-3297
made	-3298
mint	-3299
oops	-3300
pain	-3301
pass	-3302
quee	-3303
ubby	-3304
used	-3305
▁bra	-3306
▁don	-3307
▁ela	-3308
▁fil	-3309
▁goo	-3310
▁lim	-3311
▁ori	-3312
▁sli	-3313
▁spi	-3314
▁suv	-3315
athon	-3316
gress	-3317
irrel	-3318
pical	-3319
riers	-3320
shund	-3321
tters	-3322
urity	-3323
▁acro	-3324
▁chop	-3325
▁cups	-3326
▁flan	-3327
▁furn	-3328
▁logo	-3329
▁love	-3330
▁navy	-3331
▁pops	-3332
▁pres	-3333
▁sell	-3334
▁tumb	-3335
▁wade	-3336
ashion	-3337
ations	-3338
borate	-3339
ention	-3340
ically	-3341
isting	-3342
minton	-3343
quoise	-3344
sticks	-3345
▁arena	-3346
▁belly	-3347
▁bends	-3348
▁bicyc	-3349
▁boxer	-3350
▁bread	-3351
▁colla	-3352
▁doors	-3353
▁drain	-3354
▁festi	-3355
▁grabs	-3356
▁human	-3357
▁kites	-3358
▁lands	-3359
▁males	-3360
▁mouse	-3361
▁noses	-3362
▁piano	-3363
▁picks	-3364
▁piggy	-3365
▁pizza	-3366
▁rings	-3367
▁seats	-3368
▁shops	-3369
▁spout	-3370
▁stall	-3371
▁stars	-3372
▁treat	-3373
▁walls	-3374
▁weeds	-3375
▁border	-3376
▁boston	-3377
▁canyon	-3378
▁cutout	-3379
▁floppy	-3380
▁frolic	-3381
▁hallow	-3382
▁hiding	-3383
▁kayaks	-3384
▁member	-3385
▁owners	-3386
▁pinata	-3387
▁poster	-3388
▁pushed	-3389
▁rocket	-3390
▁saying	-3391
▁shoots	-3392
▁spider	-3393
▁tights	-3394
▁within	-3395
▁carried	-3396
▁concert	-3397
▁cooking	-3398
▁excited	-3399
▁fencing	-3400
▁flowery	-3401
▁folding	-3402
▁garbage	-3403
▁numbers	-3404
▁opening	-3405
▁skiiers	-3406
▁sleeved	-3407
▁stretch	-3408
▁trainer	-3409
▁wheeled	-3410
▁wheeler	-3411
▁beverage	-3412
▁campfire	-3413
▁carpeted	-3414
▁crawling	-3415
▁festival	-3416
▁growling	-3417
▁helmeted	-3418
▁jumpsuit	-3419
▁marathon	-3420
▁opponent	-3421
▁oriental	-3422
▁overhead	-3423
▁pitching	-3424
▁security	-3425
▁snowbank	-3426
▁squirrel	-3427
▁squirted	-3428
▁toddlers	-3429
▁tropical	-3430
▁windsurf	-3431
▁badminton	-3432
▁elaborate	-3433
▁halloween	-3434
▁harnesses	-3435
▁headdress	-3436
▁strollers	-3437
▁chopsticks	-3438
▁footballer	-3439
▁graffitied	-3440
▁pretending	-3441
▁bridesmaids	-3442
▁individuals	-3443
▁participate	-3444
▁snowboarders	-3445
cc	-3446
vo	-3447
▁?	-3448
ato	-3449
cam	-3450
hib	-3451
ork	-3452
ram	-3453
spe	-3454
tal	-3455
▁ru	-3456
ains	-3457
amps	-3458
ault	-3459
bars	-3460
cope	-3461
cted	-3462
dish	-3463
icop	-3464
ient	-3465
iled	-3466
iler	-3467
keys	-3468
resh	-3469
vest	-3470
xing	-3471
▁bay	-3472
▁bon	-3473
▁bul	-3474
▁dep	-3475
▁fin	-3476
▁gas	-3477
▁inj	-3478
▁joy	-3479
▁lip	-3480
▁mel	-3481
▁mis	-3482
▁reg	-3483
▁sad	-3484
▁son	-3485
▁ver	-3486
▁was	-3487
allel	-3488
ative	-3489
lines	-3490
rings	-3491
sters	-3492
using	-3493
where	-3494
▁bats	-3495
▁calm	-3496
▁cans	-3497
▁caut	-3498
▁clad	-3499
▁club	-3500
▁cobb	-3501
▁cush	-3502
▁dach	-3503
▁dive	-3504
▁dump	-3505
▁ends	-3506
▁free	-3507
▁give	-3508
▁gras	-3509
▁hear	-3510
▁labr	-3511
▁mans	-3512
▁milk	-3513
▁mist	-3514
▁pads	-3515
▁polo	-3516
▁poss	-3517
▁sort	-3518
▁tape	-3519
▁tarp	-3520
aining	-3521
barrow	-3522
iously	-3523
racing	-3524
shirts	-3525
stroke	-3526
▁boxes	-3527
▁brace	-3528
▁canal	-3529
▁carts	-3530
▁claus	-3531
▁dimly	-3532
▁ditch	-3533
▁dusty	-3534
▁exhib	-3535
▁gallo	-3536
▁inspe	-3537
▁lifts	-3538
▁midst	-3539
▁opens	-3540
▁peeks	-3541
▁plush	-3542
▁posts	-3543
▁pours	-3544
▁ramps	-3545
▁relig	-3546
▁score	-3547
▁share	-3548
▁start	-3549
▁sunsh	-3550
▁teles	-3551
▁trans	-3552
icopter	-3553
ificial	-3554
wheeled	-3555
wheeler	-3556
▁apples	-3557
▁asking	-3558
▁babies	-3559
▁beanie	-3560
▁belong	-3561
▁commun	-3562
▁dalmat	-3563
▁dancer	-3564
▁dinner	-3565
▁domino	-3566
▁driven	-3567
▁europe	-3568
▁firing	-3569
▁mobile	-3570
▁outcro	-3571
▁passen	-3572
▁plates	-3573
▁purses	-3574
▁scenic	-3575
▁singer	-3576
▁submer	-3577
american	-3578
▁acrobat	-3579
▁backlit	-3580
▁bundled	-3581
▁burning	-3582
▁ceiling	-3583
▁college	-3584
▁couples	-3585
▁cushion	-3586
▁cutting	-3587
▁flannel	-3588
▁guitars	-3589
▁hardhat	-3590
▁injured	-3591
▁lacross	-3592
▁leashed	-3593
▁monster	-3594
▁musical	-3595
▁reddish	-3596
▁returns	-3597
▁selling	-3598
▁sharing	-3599
▁shirted	-3600
▁sprints	-3601
▁statues	-3602
▁travels	-3603
▁yelling	-3604
▁bicycler	-3605
▁bounding	-3606
▁cheering	-3607
▁cleaning	-3608
▁descends	-3609
▁dropping	-3610
▁earrings	-3611
▁electric	-3612
▁emerging	-3613
▁hardwood	-3614
▁juggling	-3615
▁lighting	-3616
▁overpass	-3617
▁parallel	-3618
▁retrieve	-3619
▁sporting	-3620
▁stairway	-3621
▁container	-3622
▁dachshund	-3623
▁distorted	-3624
▁policemen	-3625
▁religious	-3626
▁stretched	-3627
▁telephone	-3628
▁telescope	-3629
▁tightrope	-3630
▁turquoise	-3631
▁approaches	-3632
▁artificial	-3633
▁everywhere	-3634
▁expression	-3635
▁helicopter	-3636
▁stretching	-3637
▁interacting	-3638
▁pedestrians	-3639
▁quarterback	-3640
▁silhouetted	-3641
bs	-3642
em	-3643
gu	-3644
po	-3645
wa	-3646
yo	-3647
▁!	-3648
▁6	-3649
ael	-3650
alt	-3651
ara	-3652
bot	-3653
cra	-3654
eer	-3655
erb	-3656
ets	-3657
ida	-3658
inj	-3659
ker	-3660
kle	-3661
ndo	-3662
oop	-3663
tur	-3664
vie	-3665
▁ta	-3666
▁wo	-3667
aker	-3668
ange	-3669
born	-3670
elry	-3671
erby	-3672
ided	-3673
ills	-3674
jump	-3675
ness	-3676
orts	-3677
pled	-3678
rial	-3679
sely	-3680
sure	-3681
tter	-3682
ustr	-3683
uzzy	-3684
wear	-3685
▁ant	-3686
▁bee	-3687
▁bel	-3688
▁cal	-3689
▁cyc	-3690
▁fer	-3691
▁gla	-3692
▁ill	-3693
▁jar	-3694
▁min	-3695
▁nap	-3696
▁oll	-3697
▁rus	-3698
▁tor	-3699
▁zip	-3700
actor	-3701
arent	-3702
bones	-3703
craft	-3704
gling	-3705
green	-3706
icker	-3707
immed	-3708
inese	-3709
iture	-3710
ivers	-3711
piece	-3712
ppers	-3713
queez	-3714
ramid	-3715
rents	-3716
stone	-3717
works	-3718
▁bent	-3719
▁care	-3720
▁char	-3721
▁chin	-3722
▁cute	-3723
▁disk	-3724
▁evil	-3725
▁gown	-3726
▁kilt	-3727
▁lane	-3728
▁limb	-3729
▁mitt	-3730
▁nice	-3731
▁obsc	-3732
▁pail	-3733
▁pets	-3734
▁priz	-3735
▁sees	-3736
▁sold	-3737
▁spre	-3738
▁tuss	-3739
alleng	-3740
camera	-3741
estive	-3742
flated	-3743
shaped	-3744
▁ankle	-3745
▁breed	-3746
▁camps	-3747
▁crack	-3748
▁crown	-3749
▁dried	-3750
▁enter	-3751
▁extre	-3752
▁fuzzy	-3753
▁heart	-3754
▁hilly	-3755
▁items	-3756
▁jacks	-3757
▁lines	-3758
▁marsh	-3759
▁movie	-3760
▁peach	-3761
▁plank	-3762
▁press	-3763
▁produ	-3764
▁rails	-3765
▁rally	-3766
▁recei	-3767
▁robot	-3768
▁rusty	-3769
▁scrat	-3770
▁shrub	-3771
▁skies	-3772
▁snack	-3773
▁socks	-3774
▁storm	-3775
▁twirl	-3776
▁works	-3777
▁youth	-3778
ustrial	-3779
▁aerial	-3780
▁bigger	-3781
▁boards	-3782
▁bouncy	-3783
▁bridal	-3784
▁buried	-3785
▁canoes	-3786
▁covers	-3787
▁folded	-3788
▁glider	-3789
▁kicked	-3790
▁lifted	-3791
▁lining	-3792
▁paints	-3793
▁photos	-3794
▁pointy	-3795
▁record	-3796
▁resort	-3797
▁saddle	-3798
▁sister	-3799
▁sprays	-3800
▁squeez	-3801
▁stones	-3802
▁straps	-3803
▁things	-3804
▁tossed	-3805
▁treads	-3806
▁trench	-3807
▁warmly	-3808
iversity	-3809
▁amongst	-3810
▁bearing	-3811
▁begging	-3812
▁blocked	-3813
▁bounces	-3814
▁bouquet	-3815
▁bucking	-3816
▁carving	-3817
▁chinese	-3818
▁circuit	-3819
▁cycling	-3820
▁dancers	-3821
▁exhibit	-3822
▁fashion	-3823
▁fetches	-3824
▁florida	-3825
▁frolics	-3826
▁handbag	-3827
▁herding	-3828
▁highway	-3829
▁jewelry	-3830
▁juggles	-3831
▁lifting	-3832
▁located	-3833
▁monitor	-3834
▁newborn	-3835
▁patches	-3836
▁peeking	-3837
▁pumpkin	-3838
▁pyramid	-3839
▁sailing	-3840
▁shovels	-3841
▁special	-3842
▁tractor	-3843
▁travers	-3844
▁turkeys	-3845
▁yawning	-3846
▁chainsaw	-3847
▁challeng	-3848
▁checking	-3849
▁chickens	-3850
▁coloring	-3851
▁creating	-3852
▁darkened	-3853
▁deflated	-3854
▁european	-3855
▁forested	-3856
▁homemade	-3857
▁horsesho	-3858
▁interact	-3859
▁labrador	-3860
▁lacrosse	-3861
▁machines	-3862
▁magazine	-3863
▁multiple	-3864
▁muscular	-3865
▁mustache	-3866
▁observes	-3867
▁overhang	-3868
▁progress	-3869
▁sailboat	-3870
▁sparkler	-3871
▁speeding	-3872
▁starring	-3873
▁steering	-3874
▁strapped	-3875
▁superman	-3876
▁sweaters	-3877
▁tattooed	-3878
▁ascending	-3879
▁attention	-3880
▁beginning	-3881
▁billboard	-3882
▁embracing	-3883
▁enclosure	-3884
▁fireworks	-3885
▁furniture	-3886
▁including	-3887
▁operating	-3888
▁overlooks	-3889
▁paperwork	-3890
▁sparklers	-3891
▁tricycles	-3892
▁backpacker	-3893
▁backstroke	-3894
▁belongings	-3895
▁crossbones	-3896
▁electronic	-3897
▁fairground	-3898
▁gymnastics	-3899
▁handlebars	-3900
▁horizontal	-3901
▁industrial	-3902
▁university	-3903
▁watercraft	-3904
▁firefighter	-3905
▁interesting	-3906
▁marketplace	-3907
▁outcropping	-3908
▁performance	-3909
▁wheelbarrow	-3910
▁outstreached	-3911
▁motorcyclists	-3912
wh	-3913
ye	-3914
cot	-3915
cul	-3916
ded	-3917
ggs	-3918
iet	-3919
igo	-3920
ldo	-3921
lee	-3922
lph	-3923
uis	-3924
umm	-3925
zag	-3926
▁em	-3927
▁es	-3928
▁ig	-3929
▁ju	-3930
▁ox	-3931
aman	-3932
eddy	-3933
illa	-3934
ilor	-3935
iner	-3936
inja	-3937
ises	-3938
just	-3939
melo	-3940
ooth	-3941
quid	-3942
ried	-3943
roon	-3944
sect	-3945
seen	-3946
tain	-3947
umer	-3948
vent	-3949
▁atm	-3950
▁avo	-3951
▁bib	-3952
▁bin	-3953
▁buy	-3954
▁eas	-3955
▁foc	-3956
▁fog	-3957
▁inv	-3958
▁jag	-3959
▁jud	-3960
▁lun	-3961
▁occ	-3962
▁pop	-3963
▁pud	-3964
▁rec	-3965
▁sal	-3966
▁ske	-3967
▁tee	-3968
▁toe	-3969
ambur	-3970
asium	-3971
aters	-3972
brush	-3973
climb	-3974
fetti	-3975
field	-3976
hoops	-3977
ickey	-3978
ieval	-3979
izing	-3980
lider	-3981
lined	-3982
lphin	-3983
oming	-3984
phalt	-3985
plets	-3986
scrap	-3987
tical	-3988
truck	-3989
unges	-3990
ustom	-3991
water	-3992
white	-3993
▁ange	-3994
▁batt	-3995
▁come	-3996
▁corr	-3997
▁ener	-3998
▁fist	-3999
▁flee	-4000
▁good	-4001
▁grap	-4002
▁lamb	-4003
▁leag	-4004
▁lear	-4005
▁lush	-4006
▁main	-4007
▁mall	-4008
▁mich	-4009
▁note	-4010
▁rabb	-4011
▁rack	-4012
▁romp	-4013
▁rott	-4014
▁rubs	-4015
▁seas	-4016
▁shed	-4017
▁snap	-4018
▁span	-4019
▁summ	-4020
▁teal	-4021
▁test	-4022
▁trek	-4023
antily	-4024
cently	-4025
coming	-4026
nament	-4027
turned	-4028
vering	-4029
vestig	-4030
weiler	-4031
wheels	-4032
▁alike	-4033
▁attra	-4034
▁books	-4035
▁bowls	-4036
▁broom	-4037
▁flood	-4038
▁fresh	-4039
▁goats	-4040
▁grins	-4041
▁hides	-4042
▁horns	-4043
▁hotel	-4044
▁juice	-4045
▁lasso	-4046
▁lower	-4047
▁ninja	-4048
▁peaks	-4049
▁rafts	-4050
▁raise	-4051
▁sleds	-4052
▁snake	-4053
▁soars	-4054
▁spons	-4055
▁strad	-4056
▁swans	-4057
▁tails	-4058
▁teddy	-4059
▁thick	-4060
▁tools	-4061
▁tooth	-4062
▁tutus	-4063
▁uncut	-4064
▁villa	-4065
▁wrist	-4066
estrian	-4067
lestone	-4068
▁adjust	-4069
▁admire	-4070
▁assist	-4071
▁ballet	-4072
▁bulldo	-4073
▁canopy	-4074
▁cheeks	-4075
▁choppy	-4076
▁cliffs	-4077
▁clings	-4078
▁custom	-4079
▁dollar	-4080
▁entert	-4081
▁facial	-4082
▁french	-4083
▁hambur	-4084
▁headed	-4085
▁insect	-4086
▁jagged	-4087
▁liquid	-4088
▁marble	-4089
▁maroon	-4090
▁mascot	-4091
▁mickey	-4092
▁packed	-4093
▁padded	-4094
▁papers	-4095
▁pauses	-4096
▁placed	-4097
▁potato	-4098
▁series	-4099
▁shades	-4100
▁shines	-4101
▁slopes	-4102
▁starts	-4103
▁strewn	-4104
▁stripe	-4105
▁studio	-4106
▁tosses	-4107
▁unseen	-4108
▁writes	-4109
▁airport	-4110
▁asphalt	-4111
▁banners	-4112
▁batting	-4113
▁bottoms	-4114
▁bowling	-4115
▁cameras	-4116
▁caution	-4117
▁checked	-4118
▁contest	-4119
▁crashes	-4120
▁current	-4121
▁digital	-4122
▁dolphin	-4123
▁drummer	-4124
▁extreme	-4125
▁fencers	-4126
▁festive	-4127
▁fireman	-4128
▁haircut	-4129
▁hooping	-4130
▁jackson	-4131
▁letters	-4132
▁listens	-4133
▁lockers	-4134
▁meeting	-4135
▁michael	-4136
▁parents	-4137
▁pattern	-4138
▁perched	-4139
▁pointed	-4140
▁pounces	-4141
▁prepare	-4142
▁scenery	-4143
▁shining	-4144
▁sidecar	-4145
▁skaters	-4146
▁sleeves	-4147
▁snowman	-4148
▁soaking	-4149
▁soaring	-4150
▁strings	-4151
▁sucking	-4152
▁theater	-4153
▁tugging	-4154
▁written	-4155
▁athletes	-4156
▁bagpipes	-4157
▁blocking	-4158
▁bracelet	-4159
▁campsite	-4160
▁clearing	-4161
▁confetti	-4162
▁costumed	-4163
▁dangling	-4164
▁dragging	-4165
▁droplets	-4166
▁forehead	-4167
▁investig	-4168
▁medieval	-4169
▁official	-4170
▁parasail	-4171
▁piercing	-4172
▁raincoat	-4173
▁recently	-4174
▁scantily	-4175
▁seagulls	-4176
▁skyscrap	-4177
▁suburban	-4178
▁teaching	-4179
▁vertical	-4180
▁waterway	-4181
▁apartment	-4182
▁cameraman	-4183
▁carefully	-4184
▁community	-4185
▁explosion	-4186
▁firetruck	-4187
▁guitarist	-4188
▁gymnasium	-4189
▁maneuvers	-4190
▁nighttime	-4191
▁observing	-4192
▁obstacles	-4193
▁performer	-4194
▁playhouse	-4195
▁sidelines	-4196
▁squatting	-4197
▁watermelo	-4198
▁cellphones	-4199
▁colorfully	-4200
▁containing	-4201
▁greenhouse	-4202
▁hamburgers	-4203
▁motorbikes	-4204
▁multicolor	-4205
▁sleeveless	-4206
▁storefront	-4207
▁waterfalls	-4208
▁backpacking	-4209
▁blindfolded	-4210
▁challenging	-4211
▁cobblestone	-4212
▁mountainous	-4213
▁parasailing	-4214
▁wakeboarder	-4215
▁participating	-4216
ga	-4217
pr	-4218
su	-4219
uc	-4220
vy	-4221
▁(	-4222
awl	-4223
bby	-4224
box	-4225
bul	-4226
cla	-4227
cod	-4228
eps	-4229
esh	-4230
fly	-4231
ica	-4232
iel	-4233
ils	-4234
lom	-4235
non	-4236
pan	-4237
phy	-4238
ris	-4239
vel	-4240
vet	-4241
viz	-4242
yed	-4243
▁ab	-4244
▁dj	-4245
▁ni	-4246
▁sy	-4247
ambo	-4248
amed	-4249
anut	-4250
aris	-4251
body	-4252
cess	-4253
chan	-4254
cier	-4255
eeps	-4256
ense	-4257
eter	-4258
flow	-4259
hift	-4260
hore	-4261
imon	-4262
iped	-4263
ique	-4264
itty	-4265
lick	-4266
lymp	-4267
outs	-4268
ples	-4269
roud	-4270
scue	-4271
stal	-4272
tops	-4273
yond	-4274
▁ado	-4275
▁anc	-4276
▁boa	-4277
▁bug	-4278
▁cop	-4279
▁gey	-4280
▁ham	-4281
▁mod	-4282
▁nip	-4283
▁odd	-4284
▁pas	-4285
▁pel	-4286
▁pie	-4287
▁pug	-4288
▁rou	-4289
▁saf	-4290
▁sax	-4291
▁sin	-4292
▁tet	-4293
▁til	-4294
▁uno	-4295
▁wea	-4296
comes	-4297
ively	-4298
leton	-4299
ments	-4300
ndogs	-4301
oring	-4302
ption	-4303
quins	-4304
riger	-4305
style	-4306
suits	-4307
tered	-4308
thing	-4309
uctor	-4310
usual	-4311
▁aero	-4312
▁arab	-4313
▁beak	-4314
▁beat	-4315
▁bere	-4316
▁bino	-4317
▁bonn	-4318
▁bows	-4319
▁brow	-4320
▁clut	-4321
▁cond	-4322
▁crev	-4323
▁draw	-4324
▁eggs	-4325
▁find	-4326
▁fort	-4327
▁frog	-4328
▁graz	-4329
▁hips	-4330
▁jogg	-4331
▁keep	-4332
▁kind	-4333
▁laid	-4334
▁mats	-4335
▁more	-4336
▁much	-4337
▁need	-4338
▁pens	-4339
▁pilo	-4340
▁pran	-4341
▁prin	-4342
▁prop	-4343
▁rapp	-4344
▁recl	-4345
▁remo	-4346
▁seal	-4347
▁site	-4348
▁snar	-4349
▁song	-4350
▁sund	-4351
▁tags	-4352
▁thre	-4353
▁tink	-4354
▁tiny	-4355
▁turb	-4356
▁wint	-4357
▁worn	-4358
▁york	-4359
codile	-4360
compan	-4361
culars	-4362
erbell	-4363
erness	-4364
flight	-4365
igator	-4366
omsmen	-4367
ousine	-4368
weight	-4369
▁ambul	-4370
▁bulls	-4371
▁bumpy	-4372
▁capes	-4373
▁casts	-4374
▁chess	-4375
▁cords	-4376
▁craft	-4377
▁crash	-4378
▁demon	-4379
▁devil	-4380
▁donut	-4381
▁dumps	-4382
▁dunes	-4383
▁fairy	-4384
▁games	-4385
▁gated	-4386
▁gazes	-4387
▁great	-4388
▁grown	-4389
▁hairy	-4390
▁hello	-4391
▁hound	-4392
▁igloo	-4393
▁invol	-4394
▁jeeps	-4395
▁kimon	-4396
▁kitty	-4397
▁knife	-4398
▁lambs	-4399
▁lease	-4400
▁legos	-4401
▁lunch	-4402
▁mount	-4403
▁newly	-4404
▁numer	-4405
▁olymp	-4406
▁pairs	-4407
▁parag	-4408
▁pasta	-4409
▁pokes	-4410
▁posed	-4411
▁pumps	-4412
▁rival	-4413
▁scary	-4414
▁seeds	-4415
▁sells	-4416
▁skips	-4417
▁sling	-4418
▁steam	-4419
▁stock	-4420
▁strap	-4421
▁sword	-4422
▁tiled	-4423
▁trots	-4424
▁trump	-4425
▁upper	-4426
▁whose	-4427
boarder	-4428
dressed	-4429
ersault	-4430
ielding	-4431
▁angels	-4432
▁awning	-4433
▁baller	-4434
▁beyond	-4435
▁blueje	-4436
▁breeds	-4437
▁campus	-4438
▁candle	-4439
▁cannon	-4440
▁checks	-4441
▁cheers	-4442
▁chubby	-4443
▁clears	-4444
▁clover	-4445
▁clowns	-4446
▁column	-4447
▁combat	-4448
▁comfor	-4449
▁compan	-4450
▁crowds	-4451
▁fields	-4452
▁finish	-4453
▁framed	-4454
▁frames	-4455
▁garage	-4456
▁geyser	-4457
▁halter	-4458
▁handic	-4459
▁island	-4460
▁league	-4461
▁litter	-4462
▁lunges	-4463
▁mechan	-4464
▁medals	-4465
▁moment	-4466
▁nearly	-4467
▁parent	-4468
▁partly	-4469
▁peanut	-4470
▁pieces	-4471
▁potted	-4472
▁rabbit	-4473
▁really	-4474
▁rescue	-4475
▁rounds	-4476
▁sheets	-4477
▁shrubs	-4478
▁slalom	-4479
▁smooth	-4480
▁social	-4481
▁spring	-4482
▁steers	-4483
▁stores	-4484
▁stunts	-4485
▁summit	-4486
▁trails	-4487
▁trains	-4488
▁trophy	-4489
▁trucks	-4490
▁tussle	-4491
▁unique	-4492
▁videot	-4493
▁waiter	-4494
▁watery	-4495
▁wicker	-4496
idential	-4497
▁bagpipe	-4498
▁baseman	-4499
▁batsman	-4500
▁bedroom	-4501
▁carrier	-4502
▁chicken	-4503
▁classic	-4504
▁collide	-4505
▁cowgirl	-4506
▁croquet	-4507
▁curtain	-4508
▁dunking	-4509
▁extends	-4510
▁flaming	-4511
▁flowing	-4512
▁frolick	-4513
▁glacier	-4514
▁gnawing	-4515
▁handing	-4516
▁heading	-4517
▁headset	-4518
▁huddled	-4519
▁incline	-4520
▁massage	-4521
▁melting	-4522
▁pelican	-4523
▁pierced	-4524
▁popping	-4525
▁posters	-4526
▁present	-4527
▁ridding	-4528
▁rubbing	-4529
▁screams	-4530
▁seating	-4531
▁soldier	-4532
▁squirts	-4533
▁stopped	-4534
▁tackles	-4535
▁tongues	-4536
▁unusual	-4537
▁village	-4538
▁washing	-4539
▁winding	-4540
rigerator	-4541
▁accompan	-4542
▁canoeing	-4543
▁circular	-4544
▁clapping	-4545
▁confront	-4546
▁corndogs	-4547
▁creature	-4548
▁drilling	-4549
▁elevator	-4550
▁exercise	-4551
▁extended	-4552
▁greenery	-4553
▁incoming	-4554
▁leafless	-4555
▁location	-4556
▁maneuver	-4557
▁overlook	-4558
▁practice	-4559
▁pumpkins	-4560
▁scooters	-4561
▁seashore	-4562
▁skeleton	-4563
▁sparring	-4564
▁stepping	-4565
▁striking	-4566
▁stripped	-4567
▁sunshade	-4568
▁terriers	-4569
▁tumbling	-4570
▁twisting	-4571
▁watering	-4572
▁wrestles	-4573
▁acrobatic	-4574
▁ambulance	-4575
▁butterfly	-4576
▁crocodile	-4577
▁dalmatian	-4578
▁dribbling	-4579
▁earphones	-4580
▁groomsmen	-4581
▁limousine	-4582
▁magazines	-4583
▁makeshift	-4584
▁miniature	-4585
▁motorized	-4586
▁moustache	-4587
▁navigates	-4588
▁necklaces	-4589
▁patterned	-4590
▁practices	-4591
▁squirting	-4592
▁submerged	-4593
▁tracksuit	-4594
▁binoculars	-4595
▁cartwheels	-4596
▁directions	-4597
▁equestrian	-4598
▁formations	-4599
▁instructor	-4600
▁interviews	-4601
▁newspapers	-4602
▁overweight	-4603
▁passengers	-4604
▁pedestrian	-4605
▁possession	-4606
▁reflecting	-4607
▁skyscraper	-4608
▁snowboards	-4609
▁structures	-4610
▁tinkerbell	-4611
▁tournament	-4612
▁wilderness	-4613
▁windsurfer	-4614
▁footballers	-4615
▁parachuting	-4616
▁residential	-4617
▁participates	-4618
▁refrigerator	-4619
▁photographers	-4620
ex	-4621
gi	-4622
hy	-4623
oc	-4624
▁&	-4625
▁)	-4626
▁7	-4627
ady	-4628
bur	-4629
flo	-4630
gle	-4631
hap	-4632
ico	-4633
ict	-4634
ior	-4635
ord	-4636
orn	-4637
ors	-4638
ott	-4639
own	-4640
res	-4641
rib	-4642
rop	-4643
tan	-4644
tie	-4645
tin	-4646
tty	-4647
ude	-4648
uds	-4649
ulf	-4650
vas	-4651
wed	-4652
woo	-4653
zer	-4654
▁19	-4655
▁4-	-4656
▁el	-4657
▁if	-4658
▁ir	-4659
▁rv	-4660
▁ti	-4661
▁vu	-4662
aber	-4663
aces	-4664
ampy	-4665
anas	-4666
ards	-4667
asse	-4668
brow	-4669
cept	-4670
clad	-4671
dern	-4672
gles	-4673
greg	-4674
host	-4675
idor	-4676
igot	-4677
inas	-4678
ipop	-4679
lert	-4680
lies	-4681
lits	-4682
lock	-4683
nate	-4684
noon	-4685
oned	-4686
onge	-4687
park	-4688
pipe	-4689
play	-4690
rait	-4691
rous	-4692
slee	-4693
sted	-4694
sued	-4695
tely	-4696
town	-4697
tton	-4698
uble	-4699
ummy	-4700
umns	-4701
vine	-4702
wrap	-4703
▁acc	-4704
▁awa	-4705
▁bit	-4706
▁cry	-4707
▁dad	-4708
▁def	-4709
▁dod	-4710
▁hip	-4711
▁hun	-4712
▁imp	-4713
▁key	-4714
▁kno	-4715
▁led	-4716
▁lie	-4717
▁mor	-4718
▁nur	-4719
▁oar	-4720
▁pay	-4721
▁pom	-4722
▁poo	-4723
▁rag	-4724
▁tax	-4725
▁thr	-4726
▁vel	-4727
▁zig	-4728
ained	-4729
alian	-4730
amboo	-4731
aming	-4732
ances	-4733
aping	-4734
artly	-4735
bands	-4736
berty	-4737
brary	-4738
ently	-4739
erson	-4740
gings	-4741
groud	-4742
happy	-4743
igolo	-4744
illar	-4745
indle	-4746
ipede	-4747
itted	-4748
itton	-4749
jects	-4750
paint	-4751
phard	-4752
store	-4753
ually	-4754
upied	-4755
ushes	-4756
uster	-4757
uting	-4758
▁aims	-4759
▁amer	-4760
▁anti	-4761
▁bale	-4762
▁bark	-4763
▁bell	-4764
▁belt	-4765
▁camo	-4766
▁cash	-4767
▁chat	-4768
▁chip	-4769
▁clay	-4770
▁conf	-4771
▁cons	-4772
▁crab	-4773
▁ding	-4774
▁dots	-4775
▁dren	-4776
▁dyed	-4777
▁eyed	-4778
▁fell	-4779
▁flex	-4780
▁gift	-4781
▁glow	-4782
▁goof	-4783
▁guns	-4784
▁hump	-4785
▁huts	-4786
▁lamp	-4787
▁lens	-4788
▁limo	-4789
▁loll	-4790
▁mean	-4791
▁mesh	-4792
▁mets	-4793
▁moon	-4794
▁moss	-4795
▁mout	-4796
▁must	-4797
▁nips	-4798
▁prom	-4799
▁puff	-4800
▁quad	-4801
▁russ	-4802
▁saxo	-4803
▁sear	-4804
▁size	-4805
▁soap	-4806
▁stro	-4807
▁suds	-4808
▁swoo	-4809
▁than	-4810
▁ties	-4811
▁tray	-4812
▁twig	-4813
▁upon	-4814
▁used	-4815
▁vaul	-4816
▁vict	-4817
▁when	-4818
▁wool	-4819
▁yoga	-4820
appled	-4821
corder	-4822
inting	-4823
legged	-4824
necked	-4825
nected	-4826
ooling	-4827
ottish	-4828
spread	-4829
▁aband	-4830
▁alert	-4831
▁arrow	-4832
▁austr	-4833
▁bales	-4834
▁bares	-4835
▁beret	-4836
▁bloss	-4837
▁bluff	-4838
▁built	-4839
▁buses	-4840
▁cable	-4841
▁canon	-4842
▁cargo	-4843
▁chaps	-4844
▁chunk	-4845
▁coast	-4846
▁crest	-4847
▁curvy	-4848
▁cycle	-4849
▁depic	-4850
▁derby	-4851
▁diner	-4852
▁drift	-4853
▁drops	-4854
▁dummy	-4855
▁dunks	-4856
▁eagle	-4857
▁feeds	-4858
▁ferry	-4859
▁films	-4860
▁focus	-4861
▁frost	-4862
▁ghost	-4863
▁greet	-4864
▁guide	-4865
▁irish	-4866
▁jetty	-4867
▁keeps	-4868
▁kneel	-4869
▁leave	-4870
▁lobby	-4871
▁louis	-4872
▁manne	-4873
▁march	-4874
▁mater	-4875
▁merch	-4876
▁messy	-4877
▁meter	-4878
▁misty	-4879
▁nears	-4880
▁ollie	-4881
▁order	-4882
▁overs	-4883
▁peers	-4884
▁perio	-4885
▁pries	-4886
▁prize	-4887
▁purch	-4888
▁quiet	-4889
▁rainy	-4890
▁recor	-4891
▁roman	-4892
▁sacks	-4893
▁salon	-4894
▁shawl	-4895
▁shiny	-4896
▁speak	-4897
▁spiky	-4898
▁split	-4899
▁spraw	-4900
▁steel	-4901
▁swung	-4902
▁towed	-4903
▁union	-4904
▁veget	-4905
▁wipes	-4906
▁words	-4907
▁world	-4908
ational	-4909
itorium	-4910
▁active	-4911
▁aiming	-4912
▁arched	-4913
▁awards	-4914
▁bamboo	-4915
▁barbed	-4916
▁baring	-4917
▁batter	-4918
▁booths	-4919
▁boxers	-4920
▁breaks	-4921
▁breath	-4922
▁brooms	-4923
▁called	-4924
▁canvas	-4925
▁casino	-4926
▁castle	-4927
▁cookie	-4928
▁cotton	-4929
▁curved	-4930
▁design	-4931
▁diners	-4932
▁dining	-4933
▁direct	-4934
▁docked	-4935
▁double	-4936
▁engage	-4937
▁engulf	-4938
▁except	-4939
▁fences	-4940
▁fights	-4941
▁floors	-4942
▁garter	-4943
▁gigolo	-4944
▁glides	-4945
▁hammer	-4946
▁handed	-4947
▁happen	-4948
▁height	-4949
▁hopper	-4950
▁icicle	-4951
▁jacked	-4952
▁jogger	-4953
▁kitten	-4954
▁launch	-4955
▁legged	-4956
▁master	-4957
▁modern	-4958
▁nature	-4959
▁ornate	-4960
▁pickup	-4961
▁poised	-4962
▁poking	-4963
▁pretty	-4964
▁prison	-4965
▁pulley	-4966
▁ravine	-4967
▁return	-4968
▁sailor	-4969
▁scramb	-4970
▁seesaw	-4971
▁signal	-4972
▁siting	-4973
▁sledge	-4974
▁sleigh	-4975
▁sooner	-4976
▁speedo	-4977
▁spigot	-4978
▁spiked	-4979
▁splits	-4980
▁sponge	-4981
▁strips	-4982
▁stripy	-4983
▁swampy	-4984
▁turban	-4985
▁unders	-4986
▁unison	-4987
▁velvet	-4988
▁walked	-4989
▁walker	-4990
▁washes	-4991
▁wintry	-4992
atically	-4993
▁ancient	-4994
▁archway	-4995
▁artists	-4996
▁balding	-4997
▁bananas	-4998
▁becomes	-4999
▁boarder	-5000
▁bonnets	-5001
▁brindle	-5002
▁brushes	-5003
▁bulldog	-5004
▁carring	-5005
▁chained	-5006
▁charact	-5007
▁closely	-5008
▁clothed	-5009
▁columns	-5010
▁condoms	-5011
▁congreg	-5012
▁cracked	-5013
▁crystal	-5014
▁curious	-5015
▁defends	-5016
▁diapers	-5017
▁earring	-5018
▁evening	-5019
▁examine	-5020
▁eyebrow	-5021
▁filling	-5022
▁flipped	-5023
▁flooded	-5024
▁floored	-5025
▁gathers	-5026
▁guiding	-5027
▁howling	-5028
▁incense	-5029
▁liberty	-5030
▁library	-5031
▁marches	-5032
▁massive	-5033
▁mittens	-5034
▁morning	-5035
▁objects	-5036
▁observe	-5037
▁pasture	-5038
▁pitches	-5039
▁placing	-5040
▁playful	-5041
▁plushie	-5042
▁presses	-5043
▁profile	-5044
▁propped	-5045
▁protect	-5046
▁puddles	-5047
▁pursued	-5048
▁reached	-5049
▁roadway	-5050
▁rushing	-5051
▁seattle	-5052
▁serious	-5053
▁slipper	-5054
▁smartly	-5055
▁snowing	-5056
▁snowmob	-5057
▁spreads	-5058
▁support	-5059
▁teaches	-5060
▁toilets	-5061
▁trumpet	-5062
▁turbans	-5063
▁unhappy	-5064
▁vuitton	-5065
▁whistle	-5066
▁workout	-5067
portation	-5068
▁admiring	-5069
▁alleyway	-5070
▁backward	-5071
▁bandaged	-5072
▁barriers	-5073
▁blacktop	-5074
▁brownish	-5075
▁chatting	-5076
▁collared	-5077
▁competit	-5078
▁complete	-5079
▁converse	-5080
▁corridor	-5081
▁demonstr	-5082
▁downtown	-5083
▁drenched	-5084
▁feathers	-5085
▁grinning	-5086
▁guarding	-5087
▁headwrap	-5088
▁hovering	-5089
▁inflated	-5090
▁intently	-5091
▁launches	-5092
▁leggings	-5093
▁lipstick	-5094
▁lollipop	-5095
▁lounging	-5096
▁material	-5097
▁musician	-5098
▁numerous	-5099
▁popsicle	-5100
▁portable	-5101
▁portrait	-5102
▁pouncing	-5103
▁presents	-5104
▁pretends	-5105
▁receives	-5106
▁roadside	-5107
▁scottish	-5108
▁shallows	-5109
▁shephard	-5110
▁smelling	-5111
▁somthing	-5112
▁standard	-5113
▁sundress	-5114
▁tourists	-5115
▁twirling	-5116
▁wetsuits	-5117
▁wrapping	-5118
▁afternoon	-5119
▁alligator	-5120
▁assisting	-5121
▁attacking	-5122
▁bedspread	-5123
▁bluejeans	-5124
▁bookstore	-5125
▁camcorder	-5126
▁celebrate	-5127
▁centipede	-5128
▁connected	-5129
▁curiously	-5130
▁dalmation	-5131
▁defenders	-5132
▁defending	-5133
▁elephants	-5134
▁elevation	-5135
▁entertain	-5136
▁examining	-5137
▁fashioned	-5138
▁feathered	-5139
▁galloping	-5140
▁gymnastic	-5141
▁paintings	-5142
▁reception	-5143
▁repelling	-5144
▁screaming	-5145
▁sponsored	-5146
▁spotlight	-5147
▁teammates	-5148
▁assistance	-5149
▁auditorium	-5150
▁australian	-5151
▁ballerinas	-5152
▁barefooted	-5153
▁blindfolds	-5154
▁completely	-5155
▁conversing	-5156
▁decorative	-5157
▁displaying	-5158
▁floatation	-5159
▁horseshoes	-5160
▁inspecting	-5161
▁interested	-5162
▁mechanical	-5163
▁navigating	-5164
▁rottweiler	-5165
▁scratching	-5166
▁somersault	-5167
▁struggling	-5168
▁whitewater	-5169
▁celebrating	-5170
▁mountaineer	-5171
▁snowmobiles	-5172
▁socializing	-5173
▁surfboarder	-5174
▁underground	-5175
▁cheerleading	-5176
▁conversation	-5177
▁presentation	-5178
▁rollerskates	-5179
▁transportation	-5180
af	-5181
ca	-5182
de	-5183
dr	-5184
fi	-5185
fl	-5186
gr	-5187
wk	-5188
yl	-5189
▁-	-5190
abl	-5191
ari	-5192
awn	-5193
bal	-5194
bie	-5195
bre	-5196
cri	-5197
gan	-5198
giz	-5199
gun	-5200
hot	-5201
hus	-5202
ief	-5203
ili	-5204
kno	-5205
log	-5206
nch	-5207
nie	-5208
omo	-5209
ont	-5210
rac	-5211
ray	-5212
rod	-5213
rot	-5214
run	-5215
ski	-5216
spo	-5217
tti	-5218
uss	-5219
wai	-5220
wom	-5221
▁10	-5222
▁25	-5223
▁28	-5224
▁ax	-5225
▁du	-5226
▁ip	-5227
▁mr	-5228
abin	-5229
acts	-5230
adly	-5231
ager	-5232
aghe	-5233
alia	-5234
alks	-5235
angu	-5236
anse	-5237
asch	-5238
atch	-5239
atee	-5240
avan	-5241
bear	-5242
bogg	-5243
cart	-5244
club	-5245
cour	-5246
deep	-5247
dies	-5248
dium	-5249
drop	-5250
eers	-5251
enna	-5252
enoc	-5253
eper	-5254
esus	-5255
gant	-5256
ghan	-5257
gled	-5258
goon	-5259
gway	-5260
hats	-5261
high	-5262
hirt	-5263
husi	-5264
ices	-5265
imes	-5266
isle	-5267
itti	-5268
ivan	-5269
iver	-5270
lama	-5271
leap	-5272
lled	-5273
ming	-5274
mple	-5275
ngth	-5276
pott	-5277
rase	-5278
reds	-5279
rise	-5280
star	-5281
stri	-5282
tion	-5283
tock	-5284
type	-5285
ucky	-5286
umin	-5287
ures	-5288
weed	-5289
wire	-5290
▁adv	-5291
▁aid	-5292
▁bud	-5293
▁bum	-5294
▁cob	-5295
▁dav	-5296
▁div	-5297
▁dug	-5298
▁est	-5299
▁fal	-5300
▁fit	-5301
▁flu	-5302
▁gor	-5303
▁had	-5304
▁hom	-5305
▁hus	-5306
▁ing	-5307
▁lob	-5308
▁lon	-5309
▁mex	-5310
▁mix	-5311
▁mos	-5312
▁our	-5313
▁pis	-5314
▁rif	-5315
▁sig	-5316
▁sol	-5317
▁sox	-5318
▁tea	-5319
▁tip	-5320
▁ton	-5321
▁ump	-5322
▁unf	-5323
▁use	-5324
▁web	-5325
▁wip	-5326
▁wis	-5327
▁wit	-5328
▁zom	-5329
▁zoo	-5330
aging	-5331
aired	-5332
andem	-5333
ander	-5334
andex	-5335
arium	-5336
asing	-5337
astel	-5338
brown	-5339
centr	-5340
cture	-5341
dling	-5342
elled	-5343
enger	-5344
enian	-5345
ettes	-5346
fting	-5347
girls	-5348
gizer	-5349
goers	-5350
guins	-5351
iller	-5352
iment	-5353
ision	-5354
isper	-5355
itish	-5356
itors	-5357
itter	-5358
known	-5359
odles	-5360
osaur	-5361
pants	-5362
rance	-5363
scent	-5364
sized	-5365
swing	-5366
tured	-5367
uding	-5368
undry	-5369
woman	-5370
▁abse	-5371
▁afro	-5372
▁ages	-5373
▁amaz	-5374
▁astr	-5375
▁atvs	-5376
▁barb	-5377
▁bass	-5378
▁beds	-5379
▁boot	-5380
▁buff	-5381
▁butt	-5382
▁call	-5383
▁cane	-5384
▁cere	-5385
▁chan	-5386
▁coas	-5387
▁cord	-5388
▁cots	-5389
▁craz	-5390
▁crew	-5391
▁crib	-5392
▁crow	-5393
▁cuts	-5394
▁done	-5395
▁dram	-5396
▁droo	-5397
▁ever	-5398
▁fill	-5399
▁flas	-5400
▁gaze	-5401
▁gest	-5402
▁goth	-5403
▁gull	-5404
▁hero	-5405
▁hide	-5406
▁hops	-5407
▁horn	-5408
▁hund	-5409
▁ipod	-5410
▁iron	-5411
▁junk	-5412
▁labs	-5413
▁lack	-5414
▁late	-5415
▁lime	-5416
▁lion	-5417
▁meas	-5418
▁menu	-5419
▁mime	-5420
▁ming	-5421
▁mock	-5422
▁monk	-5423
▁mult	-5424
▁name	-5425
▁nets	-5426
▁nibb	-5427
▁nike	-5428
▁nude	-5429
▁oars	-5430
▁oxen	-5431
▁pane	-5432
▁para	-5433
▁pear	-5434
▁penc	-5435
▁perf	-5436
▁plow	-5437
▁pock	-5438
▁poem	-5439
▁punk	-5440
▁reco	-5441
▁rele	-5442
▁rise	-5443
▁sale	-5444
▁seaw	-5445
▁seem	-5446
▁sequ	-5447
▁spel	-5448
▁stir	-5449
▁tear	-5450
▁tips	-5451
▁tram	-5452
▁trim	-5453
▁tugs	-5454
▁twil	-5455
▁vast	-5456
▁veil	-5457
▁vine	-5458
▁whom	-5459
▁wigs	-5460
▁zara	-5461
acking	-5462
andise	-5463
boggan	-5464
ensive	-5465
guards	-5466
handed	-5467
indeer	-5468
ipping	-5469
jected	-5470
keeper	-5471
lights	-5472
prised	-5473
ricade	-5474
rowded	-5475
skiing	-5476
▁activ	-5477
▁aisle	-5478
▁allow	-5479
▁amish	-5480
▁angle	-5481
▁appar	-5482
▁avoid	-5483
▁award	-5484
▁badge	-5485
▁balck	-5486
▁bared	-5487
▁baton	-5488
▁beers	-5489
▁begin	-5490
▁belts	-5491
▁bills	-5492
▁blood	-5493
▁brand	-5494
▁breat	-5495
▁cabin	-5496
▁chats	-5497
▁chili	-5498
▁chops	-5499
▁cooks	-5500
▁corgi	-5501
▁cramp	-5502
▁crank	-5503
▁crate	-5504
▁cries	-5505
▁crust	-5506
▁dasch	-5507
▁dirtb	-5508
▁dodge	-5509
▁drawn	-5510
▁drill	-5511
▁early	-5512
▁earth	-5513
▁easel	-5514
▁escor	-5515
▁fatig	-5516
▁feild	-5517
▁finis	-5518
▁flash	-5519
▁flung	-5520
▁flyer	-5521
▁fries	-5522
▁genoc	-5523
▁goofy	-5524
▁goose	-5525
▁hawai	-5526
▁hayst	-5527
▁hopes	-5528
▁india	-5529
▁jesus	-5530
▁joust	-5531
▁judge	-5532
▁langu	-5533
▁leafs	-5534
▁lives	-5535
▁llama	-5536
▁lolly	-5537
▁magic	-5538
▁mambo	-5539
▁marks	-5540
▁menus	-5541
▁model	-5542
▁moped	-5543
▁mowed	-5544
▁novel	-5545
▁organ	-5546
▁ornam	-5547
▁panel	-5548
▁pedal	-5549
▁piled	-5550
▁props	-5551
▁punch	-5552
▁quilt	-5553
▁recie	-5554
▁retre	-5555
▁rises	-5556
▁route	-5557
▁ruins	-5558
▁saber	-5559
▁sails	-5560
▁saris	-5561
▁seems	-5562
▁serve	-5563
▁shady	-5564
▁shelf	-5565
▁shine	-5566
▁shots	-5567
▁sippy	-5568
▁snows	-5569
▁snugg	-5570
▁sorts	-5571
▁staff	-5572
▁stoop	-5573
▁super	-5574
▁swarm	-5575
▁swirl	-5576
▁tabby	-5577
▁tatoo	-5578
▁teens	-5579
▁theme	-5580
▁threw	-5581
▁torso	-5582
▁tower	-5583
▁trade	-5584
▁treks	-5585
▁twist	-5586
▁upset	-5587
▁vault	-5588
▁windy	-5589
▁winks	-5590
▁woven	-5591
▁wrink	-5592
aghetti	-5593
angular	-5594
artment	-5595
bearded	-5596
chested	-5597
coaster	-5598
flowers	-5599
husiast	-5600
ishment	-5601
omobile	-5602
potties	-5603
skating	-5604
tically	-5605
umbling	-5606
▁accent	-5607
▁acting	-5608
▁adoles	-5609
▁afghan	-5610
▁amused	-5611
▁battle	-5612
▁beaded	-5613
▁billow	-5614
▁bitten	-5615
▁bodies	-5616
▁bowler	-5617
▁braids	-5618
▁bricks	-5619
▁brings	-5620
▁buying	-5621
▁carved	-5622
▁carves	-5623
▁casual	-5624
▁change	-5625
▁cheese	-5626
▁chewed	-5627
▁cigars	-5628
▁clause	-5629
▁contin	-5630
▁copper	-5631
▁crests	-5632
▁curled	-5633
▁darker	-5634
▁dinghy	-5635
▁dodges	-5636
▁dragon	-5637
▁engine	-5638
▁entang	-5639
▁establ	-5640
▁fleece	-5641
▁gazing	-5642
▁ghostb	-5643
▁goatee	-5644
▁grasps	-5645
▁grazes	-5646
▁groups	-5647
▁guards	-5648
▁guided	-5649
▁harbor	-5650
▁hearts	-5651
▁hovers	-5652
▁hugged	-5653
▁hummer	-5654
▁images	-5655
▁lagoon	-5656
▁lassie	-5657
▁letter	-5658
▁licked	-5659
▁marina	-5660
▁masked	-5661
▁misses	-5662
▁mitten	-5663
▁muscle	-5664
▁musher	-5665
▁necked	-5666
▁needle	-5667
▁nipple	-5668
▁offers	-5669
▁ollies	-5670
▁oppose	-5671
▁parrot	-5672
▁passed	-5673
▁paying	-5674
▁pedals	-5675
▁penske	-5676
▁period	-5677
▁phones	-5678
▁phrase	-5679
▁picket	-5680
▁pigeon	-5681
▁pillar	-5682
▁pinned	-5683
▁plains	-5684
▁podium	-5685
▁powder	-5686
▁priest	-5687
▁prizes	-5688
▁protes	-5689
▁ragged	-5690
▁railed	-5691
▁repels	-5692
▁rolled	-5693
▁rowers	-5694
▁sandal	-5695
▁scared	-5696
▁scouts	-5697
▁segway	-5698
▁shaded	-5699
▁shrine	-5700
▁skills	-5701
▁slacks	-5702
▁sloped	-5703
▁sparks	-5704
▁sparse	-5705
▁spikes	-5706
▁sprint	-5707
▁stride	-5708
▁strike	-5709
▁suited	-5710
▁tandem	-5711
▁temple	-5712
▁themed	-5713
▁tilted	-5714
▁tumble	-5715
▁tuxedo	-5716
▁upward	-5717
▁viewer	-5718
▁waking	-5719
▁waring	-5720
▁washed	-5721
▁wastel	-5722
▁winner	-5723
▁wiping	-5724
▁wrists	-5725
▁zigzag	-5726
climbing	-5727
▁admires	-5728
▁antenna	-5729
▁anticip	-5730
▁artwork	-5731
▁astride	-5732
▁bandage	-5733
▁biplane	-5734
▁bookshe	-5735
▁british	-5736
▁causing	-5737
▁cluster	-5738
▁collaps	-5739
▁contemp	-5740
▁cookies	-5741
▁cooling	-5742
▁cowboys	-5743
▁created	-5744
▁cutouts	-5745
▁descent	-5746
▁devices	-5747
▁dragged	-5748
▁drivers	-5749
▁elegant	-5750
▁expanse	-5751
▁farmers	-5752
▁figures	-5753
▁firemen	-5754
▁freshly	-5755
▁gallops	-5756
▁grasses	-5757
▁handgun	-5758
▁hooking	-5759
▁hopping	-5760
▁humping	-5761
▁huskies	-5762
▁illustr	-5763
▁keeping	-5764
▁kimonos	-5765
▁laptops	-5766
▁laundry	-5767
▁lecture	-5768
▁lighter	-5769
▁lobster	-5770
▁locking	-5771
▁married	-5772
▁messily	-5773
▁minivan	-5774
▁missing	-5775
▁noodles	-5776
▁overhan	-5777
▁peering	-5778
▁praying	-5779
▁pretend	-5780
▁prevent	-5781
▁printed	-5782
▁product	-5783
▁raceway	-5784
▁records	-5785
▁redbull	-5786
▁ringing	-5787
▁rocking	-5788
▁roughly	-5789
▁russell	-5790
▁scruffy	-5791
▁secured	-5792
▁shadows	-5793
▁sheepdo	-5794
▁shelter	-5795
▁shelves	-5796
▁signing	-5797
▁sipping	-5798
▁spaniel	-5799
▁speaker	-5800
▁springs	-5801
▁squares	-5802
▁stained	-5803
▁strikes	-5804
▁strolls	-5805
▁tangled	-5806
▁terrace	-5807
▁tickets	-5808
▁trailer	-5809
▁tugboat	-5810
▁unknown	-5811
▁upright	-5812
▁upwards	-5813
▁vending	-5814
▁victory	-5815
▁watersp	-5816
▁whisper	-5817
▁winking	-5818
▁approach	-5819
▁aquarium	-5820
▁armenian	-5821
▁backdrop	-5822
▁balanced	-5823
▁ballplay	-5824
▁basement	-5825
▁battling	-5826
▁boulders	-5827
▁boundary	-5828
▁bringing	-5829
▁brothers	-5830
▁captured	-5831
▁casually	-5832
▁clinging	-5833
▁coaching	-5834
▁colander	-5835
▁concentr	-5836
▁confused	-5837
▁contents	-5838
▁crevasse	-5839
▁customer	-5840
▁daschund	-5841
▁dinosaur	-5842
▁downward	-5843
▁earpiece	-5844
▁embraces	-5845
▁engulfed	-5846
▁entering	-5847
▁entrance	-5848
▁fighters	-5849
▁flapping	-5850
▁flinging	-5851
▁genocide	-5852
▁grilling	-5853
▁hurrying	-5854
▁inground	-5855
▁inspects	-5856
▁keyboard	-5857
▁language	-5858
▁learning	-5859
▁obscured	-5860
▁offering	-5861
▁olympics	-5862
▁overcoat	-5863
▁passerby	-5864
▁penguins	-5865
▁prancing	-5866
▁prisoner	-5867
▁products	-5868
▁protects	-5869
▁register	-5870
▁reindeer	-5871
▁removing	-5872
▁rounding	-5873
▁sequined	-5874
▁shadowed	-5875
▁shouting	-5876
▁skipping	-5877
▁somebody	-5878
▁spotters	-5879
▁struggle	-5880
▁suitcase	-5881
▁sunshine	-5882
▁supplies	-5883
▁swooping	-5884
▁tattered	-5885
▁tethered	-5886
▁thatched	-5887
▁toboggan	-5888
▁trailing	-5889
▁trekking	-5890
▁twilight	-5891
▁upturned	-5892
▁wheelers	-5893
▁wielding	-5894
▁abseiling	-5895
▁adjusting	-5896
▁barricade	-5897
▁beverages	-5898
▁billowing	-5899
▁cliffside	-5900
▁clutching	-5901
▁coastline	-5902
▁colliding	-5903
▁companion	-5904
▁completes	-5905
▁coverings	-5906
▁depicting	-5907
▁displayed	-5908
▁dragsters	-5909
▁energizer	-5910
▁exercises	-5911
▁facepaint	-5912
▁flowering	-5913
▁gesturing	-5914
▁groceries	-5915
▁hairstyle	-5916
▁happening	-5917
▁harnessed	-5918
▁horseshoe	-5919
▁involving	-5920
▁livestock	-5921
▁messenger	-5922
▁motorboat	-5923
▁nightclub	-5924
▁paperback	-5925
▁parasails	-5926
▁piggyback	-5927
▁retaining	-5928
▁returning	-5929
▁riverbank	-5930
▁searching	-5931
▁similarly	-5932
▁skatepark	-5933
▁spaghetti	-5934
▁spreading	-5935
▁squeezing	-5936
▁straddles	-5937
▁straining	-5938
▁streaming	-5939
▁struggles	-5940
▁submerges	-5941
▁surprised	-5942
▁traverses	-5943
▁wasteland	-5944
▁waterskis	-5945
▁attraction	-5946
▁attractive	-5947
▁automobile	-5948
▁beachgoers	-5949
▁countertop	-5950
▁dalmatians	-5951
▁dandelions	-5952
▁decoration	-5953
▁department	-5954
▁enthusiast	-5955
▁frolicking	-5956
▁goalkeeper	-5957
▁headlights	-5958
▁individual	-5959
▁lighthouse	-5960
▁mannequins	-5961
▁overturned	-5962
▁parachutes	-5963
▁paraglider	-5964
▁retrievers	-5965
▁saxophones	-5966
▁surfboards	-5967
▁suspenders	-5968
▁toothbrush	-5969
▁travelling	-5970
▁vegetation	-5971
▁videotaped	-5972
▁wakeboards	-5973
▁waterfront	-5974
▁watermelon	-5975
▁waterskies	-5976
▁wristbands	-5977
▁youngsters	-5978
▁accompanied	-5979
▁basketballs	-5980
▁competitive	-5981
▁decorations	-5982
▁electronics	-5983
▁handicapped	-5984
▁interviewed	-5985
▁investigate	-5986
▁merchandise	-5987
▁sweatshirts	-5988
▁watermelons	-5989
▁wildflowers	-5990
▁windsurfing	-5991
▁dramatically	-5992
▁firefighters	-5993
▁mountaineers	-5994
▁rollerskater	-5995
▁conversations	-5996
▁photographing	-5997
cd	-5998
hi	-5999
cs	-6000
oy	-6001
rd	-6002
sy	-6003
vi	-6004
zm	-6005
zy	-6006
ald	-6007
alo	-6008
ank	-6009
aph	-6010
arn	-6011
aws	-6012
boo	-6013
bum	-6014
chn	-6015
cho	-6016
con	-6017
eed	-6018
eta	-6019
hem	-6020
lue	-6021
net	-6022
olf	-6023
opy	-6024
our	-6025
pad	-6026
pat	-6027
pit	-6028
rup	-6029
saw	-6030
uma	-6031
var	-6032
vor	-6033
vro	-6034
wns	-6035
xes	-6036
yal	-6037
▁12	-6038
▁13	-6039
▁21	-6040
▁23	-6041
▁52	-6042
▁jr	-6043
▁ou	-6044
▁zo	-6045
aced	-6046
ardi	-6047
arts	-6048
ased	-6049
avag	-6050
aves	-6051
ayer	-6052
bell	-6053
bics	-6054
blue	-6055
book	-6056
bott	-6057
cage	-6058
cape	-6059
chel	-6060
coho	-6061
come	-6062
deon	-6063
ello	-6064
esty	-6065
fall	-6066
fort	-6067
gage	-6068
gret	-6069
gund	-6070
haps	-6071
held	-6072
hele	-6073
hire	-6074
hoop	-6075
idow	-6076
inge	-6077
irts	-6078
iven	-6079
kart	-6080
lamp	-6081
lide	-6082
life	-6083
loye	-6084
mage	-6085
mble	-6086
mill	-6087
mony	-6088
nant	-6089
nics	-6090
orth	-6091
otic	-6092
phit	-6093
ppie	-6094
pted	-6095
rant	-6096
rols	-6097
roof	-6098
sive	-6099
lt	-6100
ok	-6101
ta	-6102
xy	-6103
ze	-6104
▁:	-6105
erd	-6106
lon	-6107
roo	-6108
ula	-6109
unt	-6110
▁dw	-6111
▁ga	-6112
▁us	-6113
awas	-6114
away	-6115
bery	-6116
eria	-6117
five	-6118
ltim	-6119
rote	-6120
tern	-6121
ters	-6122
tics	-6123
tine	-6124
trum	-6125
tube	-6126
umed	-6127
urce	-6128
utar	-6129
vely	-6130
vern	-6131
vrov	-6132
weis	-6133
yset	-6134
zaga	-6135
zmat	-6136
▁104	-6137
▁281	-6138
▁ace	-6139
▁add	-6140
▁aff	-6141
▁awk	-6142
▁awn	-6143
▁axe	-6144
▁bis	-6145
▁bmw	-6146
▁cav	-6147
▁cbs	-6148
▁cot	-6149
▁dam	-6150
▁dec	-6151
▁dew	-6152
▁dre	-6153
▁dup	-6154
▁dye	-6155
▁egy	-6156
▁eth	-6157
▁fac	-6158
▁fed	-6159
▁fix	-6160
▁god	-6161
▁gon	-6162
▁ign	-6163
▁ink	-6164
▁mcd	-6165
▁nas	-6166
▁non	-6167
▁ore	-6168
▁pal	-6169
▁pav	-6170
▁ple	-6171
▁pon	-6172
▁que	-6173
▁rot	-6174
▁sam	-6175
▁saw	-6176
▁say	-6177
▁sem	-6178
▁sen	-6179
▁sha	-6180
▁sno	-6181
▁sty	-6182
▁ven	-6183
▁viz	-6184
▁wel	-6185
▁wes	-6186
▁wre	-6187
▁yor	-6188
acker	-6189
ailor	-6190
alike	-6191
angle	-6192
artan	-6193
asion	-6194
ately	-6195
bends	-6196
brero	-6197
bsite	-6198
cause	-6199
boy	-6200
tol	-6201
toy	-6202
▁84	-6203
▁mp	-6204
▁ut	-6205
▁uw	-6206
adal	-6207
aint	-6208
ford	-6209
horn	-6210
lets	-6211
ucif	-6212
▁bri	-6213
▁fri	-6214
▁mop	-6215
▁sau	-6216
▁sme	-6217
▁smu	-6218
chief	-6219
ckled	-6220
cohol	-6221
cript	-6222
diver	-6223
dynam	-6224
eller	-6225
estal	-6226
eterm	-6227
fives	-6228
flops	-6229
gical	-6230
gnant	-6231
grown	-6232
gundy	-6233
hadow	-6234
hills	-6235
hroom	-6236
iders	-6237
iener	-6238
igher	-6239
ipers	-6240
irder	-6241
ished	-6242
ities	-6243
kemon	-6244
mates	-6245
metal	-6246
olate	-6247
orary	-6248
orned	-6249
ounts	-6250
ppery	-6251
proof	-6252
ravag	-6253
rical	-6254
ronts	-6255
ropes	-6256
spons	-6257
storm	-6258
story	-6259
uched	-6260
uffle	-6261
ulcan	-6262
umble	-6263
viron	-6264
watch	-6265
wered	-6266
wings	-6267
zance	-6268
▁acce	-6269
▁adhd	-6270
▁appl	-6271
▁asia	-6272
▁auto	-6273
▁beck	-6274
▁bela	-6275
▁best	-6276
▁bits	-6277
▁blaz	-6278
▁bloo	-6279
▁bugg	-6280
▁buss	-6281
▁buzy	-6282
▁cert	-6283
▁chef	-6284
▁citi	-6285
▁clap	-6286
▁cock	-6287
▁coyo	-6288
▁dads	-6289
▁dais	-6290
▁dale	-6291
▁dome	-6292
▁dove	-6293
▁duff	-6294
▁duke	-6295
▁fant	-6296
▁fauc	-6297
▁file	-6298
▁film	-6299
aly	-6300
eli	-6301
gym	-6302
nut	-6303
zzy	-6304
▁oh	-6305
apes	-6306
aran	-6307
arer	-6308
aste	-6309
eyed	-6310
food	-6311
lent	-6312
orse	-6313
poms	-6314
rior	-6315
tled	-6316
weds	-6317
▁any	-6318
▁ash	-6319
▁gig	-6320
▁law	-6321
▁sip	-6322
▁tap	-6323
chure	-6324
icans	-6325
itect	-6326
▁begs	-6327
▁bust	-6328
▁casc	-6329
▁chow	-6330
▁deli	-6331
▁flew	-6332
▁foal	-6333
▁gaur	-6334
▁graf	-6335
▁gran	-6336
▁grin	-6337
▁halo	-6338
▁hoes	-6339
▁hoof	-6340
▁hook	-6341
▁hung	-6342
▁iced	-6343
▁join	-6344
▁kart	-6345
▁know	-6346
▁laps	-6347
▁lave	-6348
▁less	-6349
▁lets	-6350
▁loop	-6351
▁lump	-6352
▁mart	-6353
▁marx	-6354
▁matt	-6355
▁mill	-6356
▁nest	-6357
▁nurs	-6358
▁obed	-6359
▁once	-6360
▁oran	-6361
▁pebb	-6362
▁peek	-6363
▁peir	-6364
▁phys	-6365
▁pins	-6366
▁plug	-6367
▁pong	-6368
▁pooh	-6369
▁poor	-6370
▁pour	-6371
▁prey	-6372
▁puma	-6373
▁pups	-6374
▁rays	-6375
▁real	-6376
▁reve	-6377
▁root	-6378
▁rose	-6379
▁rumm	-6380
▁rund	-6381
▁rush	-6382
▁sams	-6383
▁save	-6384
▁scow	-6385
▁seed	-6386
▁self	-6387
▁semi	-6388
▁sexy	-6389
▁shit	-6390
▁shut	-6391
▁silk	-6392
▁slab	-6393
▁slam	-6394
▁soil	-6395
▁sole	-6396
▁soup	-6397
▁spin	-6398
▁spir	-6399
eye	-6400
ably	-6401
atus	-6402
ders	-6403
here	-6404
hose	-6405
idly	-6406
mart	-6407
oper	-6408
pend	-6409
teen	-6410
ubes	-6411
▁age	-6412
▁aig	-6413
▁doo	-6414
▁jug	-6415
▁rip	-6416
▁vie	-6417
color	-6418
eeing	-6419
erves	-6420
gging	-6421
ndola	-6422
pling	-6423
touch	-6424
uters	-6425
▁glee	-6426
▁gren	-6427
▁pamp	-6428
▁rice	-6429
▁sill	-6430
▁sque	-6431
▁stay	-6432
▁stee	-6433
▁sunb	-6434
▁taxi	-6435
▁tell	-6436
▁tend	-6437
▁torn	-6438
▁tuck	-6439
▁twin	-6440
▁upra	-6441
▁vamp	-6442
▁ware	-6443
▁weim	-6444
▁whit	-6445
▁wife	-6446
▁wipe	-6447
▁wolf	-6448
▁yarn	-6449
▁yell	-6450
▁youg	-6451
abiner	-6452
ailors	-6453
alling	-6454
ambour	-6455
araunt	-6456
athers	-6457
boards	-6458
chnics	-6459
coated	-6460
costum	-6461
ctured	-6462
dotted	-6463
gerous	-6464
glider	-6465
heater	-6466
hooded	-6467
ickety	-6468
icured	-6469
iently	-6470
immage	-6471
ishing	-6472
ittery	-6473
kshire	-6474
licans	-6475
logist	-6476
loyees	-6477
manned	-6478
monica	-6479
nchron	-6480
orting	-6481
paints	-6482
parent	-6483
perate	-6484
racial	-6485
resses	-6486
riving	-6487
rolina	-6488
rousel	-6489
rowing	-6490
sleeve	-6491
stream	-6492
stripe	-6493
tender	-6494
terned	-6495
unkers	-6496
ushing	-6497
usters	-6498
verted	-6499
▁id	-6500
legs	-6501
ware	-6502
▁dip	-6503
▁eff	-6504
▁flop	-6505
▁nine	-6506
boxing	-6507
vested	-6508
vision	-6509
vorite	-6510
weiser	-6511
yclers	-6512
▁adorn	-6513
▁album	-6514
▁alter	-6515
▁array	-6516
▁avrov	-6517
▁await	-6518
▁banjo	-6519
▁banks	-6520
▁beams	-6521
▁bloom	-6522
▁blues	-6523
▁bowed	-6524
▁brass	-6525
▁brill	-6526
▁brook	-6527
▁buggy	-6528
▁bumps	-6529
▁burst	-6530
▁bushy	-6531
▁capri	-6532
▁chart	-6533
▁china	-6534
▁chins	-6535
▁chips	-6536
▁clips	-6537
▁crazy	-6538
▁crocs	-6539
▁david	-6540
▁disco	-6541
▁dolly	-6542
▁draft	-6543
▁egret	-6544
▁enfor	-6545
▁exper	-6546
▁faced	-6547
▁faded	-6548
▁faith	-6549
▁false	-6550
▁fangs	-6551
▁fiery	-6552
▁finds	-6553
▁fires	-6554
▁fishe	-6555
▁flaps	-6556
▁flats	-6557
▁flore	-6558
▁foamy	-6559
▁force	-6560
▁found	-6561
▁fours	-6562
▁gates	-6563
▁gaurd	-6564
▁given	-6565
▁gnaws	-6566
▁gorge	-6567
▁gowns	-6568
▁grand	-6569
▁grasp	-6570
▁graze	-6571
▁grips	-6572
▁grove	-6573
▁heron	-6574
▁holly	-6575
▁homes	-6576
▁husks	-6577
▁icing	-6578
▁indes	-6579
▁italy	-6580
▁kawas	-6581
▁ladle	-6582
▁learn	-6583
▁local	-6584
▁logos	-6585
▁longh	-6586
▁loose	-6587
▁lucky	-6588
▁madly	-6589
▁mardi	-6590
▁mcdon	-6591
▁meand	-6592
▁medal	-6593
▁medit	-6594
▁melts	-6595
▁mills	-6596
▁mixed	-6597
▁mossy	-6598
▁nadal	-6599
▁necks	-6600
▁noise	-6601
▁north	-6602
▁notes	-6603
▁notic	-6604
▁odeon	-6605
▁pilot	-6606
▁pouch	-6607
▁puffs	-6608
▁puffy	-6609
▁pylon	-6610
▁raced	-6611
▁rears	-6612
▁recre	-6613
▁reeds	-6614
▁repla	-6615
▁respo	-6616
▁roses	-6617
▁rover	-6618
▁royal	-6619
▁scoop	-6620
▁setup	-6621
▁shack	-6622
▁shaft	-6623
▁sight	-6624
▁sinks	-6625
▁sites	-6626
▁sleek	-6627
▁slice	-6628
▁slush	-6629
▁smell	-6630
▁smock	-6631
▁snork	-6632
▁snowp	-6633
▁sound	-6634
▁spike	-6635
▁spits	-6636
▁spool	-6637
▁spoon	-6638
▁stack	-6639
▁state	-6640
▁steer	-6641
▁stony	-6642
▁story	-6643
▁sucks	-6644
▁tears	-6645
▁techn	-6646
▁thing	-6647
▁tiara	-6648
▁times	-6649
▁tired	-6650
▁trays	-6651
▁trike	-6652
▁trous	-6653
▁tuxes	-6654
▁twent	-6655
▁twigs	-6656
▁ultim	-6657
▁unfur	-6658
▁views	-6659
▁wands	-6660
▁weird	-6661
▁whack	-6662
▁whips	-6663
▁widow	-6664
▁wires	-6665
▁worsh	-6666
▁wound	-6667
▁wraps	-6668
▁yawns	-6669
▁yells	-6670
ankment	-6671
bottoms	-6672
ccupied	-6673
crowded	-6674
dappled	-6675
dynamic	-6676
fashion	-6677
handled	-6678
housing	-6679
mercial	-6680
painted	-6681
pective	-6682
raption	-6683
ristine	-6684
rolling	-6685
sleeved	-6686
utarist	-6687
weather	-6688
▁advent	-6689
▁amphit	-6690
▁athele	-6691
▁attent	-6692
▁badges	-6693
▁barack	-6694
▁barber	-6695
▁barely	-6696
▁bearer	-6697
▁better	-6698
▁blazer	-6699
▁bloody	-6700
▁blouse	-6701
▁blower	-6702
▁breast	-6703
▁calico	-6704
▁camper	-6705
▁canned	-6706
▁capris	-6707
▁cattle	-6708
▁chests	-6709
▁cleans	-6710
▁cloaks	-6711
▁closes	-6712
▁crocks	-6713
▁crucif	-6714
▁cycles	-6715
▁daring	-6716
▁darkly	-6717
▁determ	-6718
▁diaper	-6719
▁digger	-6720
▁divers	-6721
▁donuts	-6722
▁draped	-6723
▁duffel	-6724
▁dusted	-6725
▁eldery	-6726
▁eleven	-6727
▁encour	-6728
▁energy	-6729
▁escape	-6730
▁ethnic	-6731
▁exting	-6732
▁farmer	-6733
▁faucet	-6734
▁filmed	-6735
▁finley	-6736
▁fixing	-6737
▁fluore	-6738
▁footbr	-6739
▁fright	-6740
▁frilly	-6741
▁fringe	-6742
▁frosty	-6743
▁gazebo	-6744
▁gettin	-6745
▁giants	-6746
▁girder	-6747
▁gloved	-6748
▁gothic	-6749
▁greets	-6750
▁growls	-6751
▁halves	-6752
▁hazmat	-6753
▁higher	-6754
▁hitter	-6755
▁hooker	-6756
▁hunter	-6757
▁inform	-6758
▁judges	-6759
▁kimono	-6760
▁kissed	-6761
▁ladles	-6762
▁landed	-6763
▁leaned	-6764
▁leaped	-6765
▁length	-6766
▁loaded	-6767
▁manner	-6768
▁mantle	-6769
▁marine	-6770
▁mexico	-6771
▁midget	-6772
▁mingle	-6773
▁mixing	-6774
▁mosque	-6775
▁mounds	-6776
▁murals	-6777
▁nascar	-6778
▁nicely	-6779
▁notice	-6780
▁nurses	-6781
▁onward	-6782
▁oregon	-6783
▁oxford	-6784
▁parlor	-6785
▁pastry	-6786
▁patchy	-6787
▁pearls	-6788
▁pencil	-6789
▁perfom	-6790
▁perfor	-6791
▁permed	-6792
▁petals	-6793
▁pilots	-6794
▁pistol	-6795
▁places	-6796
▁pocket	-6797
▁poured	-6798
▁prayer	-6799
▁precar	-6800
▁preser	-6801
▁puppet	-6802
▁pyrote	-6803
▁rafter	-6804
▁raging	-6805
▁reacts	-6806
▁refuse	-6807
▁region	-6808
▁retail	-6809
▁rifles	-6810
▁rimmed	-6811
▁ringed	-6812
▁rising	-6813
▁rivers	-6814
▁rocker	-6815
▁rubble	-6816
▁rugged	-6817
▁runway	-6818
▁rushes	-6819
▁safari	-6820
▁safely	-6821
▁salvar	-6822
▁sashes	-6823
▁scarfs	-6824
▁senior	-6825
▁served	-6826
▁serves	-6827
▁setter	-6828
▁shiner	-6829
▁shorth	-6830
▁sights	-6831
▁snarls	-6832
▁snoopy	-6833
▁snowed	-6834
▁source	-6835
▁spouts	-6836
▁squats	-6837
▁stains	-6838
▁stalks	-6839
▁stance	-6840
▁stoops	-6841
▁strong	-6842
▁suntan	-6843
▁sweats	-6844
▁taller	-6845
▁tanned	-6846
▁tartan	-6847
▁taught	-6848
▁teeter	-6849
▁tented	-6850
▁tether	-6851
▁totter	-6852
▁towels	-6853
▁towers	-6854
▁treats	-6855
▁trials	-6856
▁twirls	-6857
▁umpire	-6858
▁varied	-6859
▁waists	-6860
▁weaves	-6861
▁wicket	-6862
▁wiener	-6863
▁wildly	-6864
▁winnie	-6865
▁yorkie	-6866
▁zombie	-6867
andelier	-6868
costumed	-6869
fighting	-6870
gressive	-6871
ificates	-6872
kerchief	-6873
reshment	-6874
uminated	-6875
▁abandon	-6876
▁accents	-6877
▁adorned	-6878
▁alcohol	-6879
▁amazing	-6880
▁america	-6881
▁amounts	-6882
▁antique	-6883
▁antlers	-6884
▁arabian	-6885
▁ascends	-6886
▁awkward	-6887
▁awnings	-6888
▁baggage	-6889
▁baskets	-6890
▁battles	-6891
▁because	-6892
▁blazing	-6893
▁boarded	-6894
▁bonfire	-6895
▁bottled	-6896
▁bounced	-6897
▁bouncer	-6898
▁buffalo	-6899
▁bystand	-6900
▁caravan	-6901
▁changes	-6902
▁cheered	-6903
▁chested	-6904
▁closing	-6905
▁cobbled	-6906
▁collage	-6907
▁comfort	-6908
▁company	-6909
▁complex	-6910
▁corners	-6911
▁couches	-6912
▁cramped	-6913
▁crevice	-6914
▁daisies	-6915
▁damaged	-6916
▁dappled	-6917
▁descend	-6918
▁directs	-6919
▁divided	-6920
▁dogsled	-6921
▁donning	-6922
▁drapped	-6923
▁dresser	-6924
▁ejected	-6925
▁element	-6926
▁engaged	-6927
▁environ	-6928
▁exiting	-6929
▁fairies	-6930
▁feature	-6931
▁flexing	-6932
▁foreign	-6933
▁forests	-6934
▁furnace	-6935
▁glances	-6936
▁gondola	-6937
▁gonzaga	-6938
▁googles	-6939
▁graphic	-6940
▁grapple	-6941
▁greyish	-6942
▁halfway	-6943
▁hilltop	-6944
▁housing	-6945
▁indians	-6946
▁knitted	-6947
▁labeled	-6948
▁lighted	-6949
▁markers	-6950
▁marquee	-6951
▁minimal	-6952
▁mottled	-6953
▁mounted	-6954
▁mouthed	-6955
▁mustard	-6956
▁nipping	-6957
▁novelty	-6958
▁nursery	-6959
▁nursing	-6960
▁olympic	-6961
▁overall	-6962
▁package	-6963
▁paddled	-6964
▁pamphle	-6965
▁paneled	-6966
▁panting	-6967
▁partner	-6968
▁passage	-6969
▁peaking	-6970
▁perches	-6971
▁perhaps	-6972
▁pillows	-6973
▁pirates	-6974
▁planeta	-6975
▁pointer	-6976
▁pokemon	-6977
▁polaris	-6978
▁portion	-6979
▁powered	-6980
▁prances	-6981
▁process	-6982
▁produce	-6983
▁pudding	-6984
▁quietly	-6985
▁rafters	-6986
▁railway	-6987
▁rappels	-6988
▁receive	-6989
▁recoils	-6990
▁regalia	-6991
▁rickety	-6992
▁rooftop	-6993
▁routine	-6994
▁rundown	-6995
▁samsung	-6996
▁satchel	-6997
▁scoring	-6998
▁scrubby	-6999
▁scuffle	-7000
▁seaweed	-7001
▁section	-7002
▁session	-7003
▁sheltie	-7004
▁sheperd	-7005
▁shocked	-7006
▁signals	-7007
▁sinking	-7008
▁skyward	-7009
▁sledder	-7010
▁slicker	-7011
▁sloping	-7012
▁smeared	-7013
▁spandex	-7014
▁spanish	-7015
▁sparrow	-7016
▁speedos	-7017
▁spilled	-7018
▁squeeze	-7019
▁squints	-7020
▁stepped	-7021
▁streaks	-7022
▁studies	-7023
▁subject	-7024
▁sunrise	-7025
▁swerves	-7026
▁tackler	-7027
▁tambour	-7028
▁tantrum	-7029
▁tightly	-7030
▁toolbox	-7031
▁topples	-7032
▁touched	-7033
▁tourist	-7034
▁transit	-7035
▁trapped	-7036
▁treated	-7037
▁trimmed	-7038
▁trooper	-7039
▁tubular	-7040
▁twisted	-7041
▁vampire	-7042
▁varying	-7043
▁viewing	-7044
▁walkers	-7045
▁walmart	-7046
▁weaving	-7047
▁website	-7048
▁weights	-7049
▁western	-7050
▁winning	-7051
▁worried	-7052
▁zooming	-7053
fashioned	-7054
itectural	-7055
sponsored	-7056
▁accented	-7057
▁accident	-7058
▁activity	-7059
▁aerobics	-7060
▁applying	-7061
▁artistic	-7062
▁attacked	-7063
▁avoiding	-7064
▁backhand	-7065
▁backless	-7066
▁birdcage	-7067
▁blossoms	-7068
▁brochure	-7069
▁bullhorn	-7070
▁burgundy	-7071
▁carolina	-7072
▁carousel	-7073
▁cattails	-7074
▁ceremony	-7075
▁charging	-7076
▁clutches	-7077
▁coasting	-7078
▁collects	-7079
▁consumed	-7080
▁continue	-7081
▁controls	-7082
▁desolate	-7083
▁directly	-7084
▁displays	-7085
▁doorbell	-7086
▁drainage	-7087
▁drawings	-7088
▁drifting	-7089
▁drooling	-7090
▁dwelling	-7091
▁elevated	-7092
▁escorted	-7093
▁everyone	-7094
▁examines	-7095
▁extravag	-7096
▁eyebrows	-7097
▁facility	-7098
▁fatigues	-7099
▁favorite	-7100
▁finished	-7101
▁fireball	-7102
▁firehose	-7103
▁flailing	-7104
▁flashing	-7105
▁flexible	-7106
▁flippers	-7107
▁flooring	-7108
▁formally	-7109
▁frolicks	-7110
▁frosting	-7111
▁frowning	-7112
▁glittery	-7113
▁grafitti	-7114
▁grasping	-7115
▁greenish	-7116
▁grounded	-7117
▁handheld	-7118
▁handicap	-7119
▁handling	-7120
▁hawaiian	-7121
▁haystack	-7122
▁headlamp	-7123
▁headlong	-7124
▁heavyset	-7125
▁hundreds	-7126
▁ignoring	-7127
▁imperson	-7128
▁includes	-7129
▁inverted	-7130
▁involved	-7131
▁jousting	-7132
▁kawasaki	-7133
▁kayakers	-7134
▁launcher	-7135
▁littered	-7136
▁lunchbox	-7137
▁measured	-7138
▁mirrored	-7139
▁mountian	-7140
▁mushroom	-7141
▁navigate	-7142
▁nibbling	-7143
▁notebook	-7144
▁observed	-7145
▁occasion	-7146
▁occupied	-7147
▁offstage	-7148
▁outwards	-7149
▁partying	-7150
▁peaceful	-7151
▁pedaling	-7152
▁pedestal	-7153
▁pelicans	-7154
▁penzance	-7155
▁peterson	-7156
▁plugging	-7157
▁poolside	-7158
▁portland	-7159
▁possible	-7160
▁pregnant	-7161
▁princess	-7162
▁propping	-7163
▁punching	-7164
▁purchase	-7165
▁reclines	-7166
▁released	-7167
▁rockstar	-7168
▁scramble	-7169
▁sheepdog	-7170
▁shoeless	-7171
▁shoppers	-7172
▁shutters	-7173
▁sideline	-7174
▁skydiver	-7175
▁slinging	-7176
▁slippers	-7177
▁smilling	-7178
▁snapping	-7179
▁snarling	-7180
▁soldiers	-7181
▁solitary	-7182
▁sombrero	-7183
▁sparsely	-7184
▁speckled	-7185
▁spitting	-7186
▁sprawled	-7187
▁stocking	-7188
▁stopping	-7189
▁streaked	-7190
▁streamer	-7191
▁stuntman	-7192
▁supports	-7193
▁surgical	-7194
▁swimwear	-7195
▁synchron	-7196
▁thinking	-7197
▁thriller	-7198
▁throught	-7199
▁traverse	-7200
▁trousers	-7201
▁tussling	-7202
▁ultimate	-7203
▁unmanned	-7204
▁upraised	-7205
▁vaulting	-7206
▁visitors	-7207
▁weimaran	-7208
▁windmill	-7209
▁wrinkled	-7210
▁abandoned	-7211
▁affection	-7212
▁americans	-7213
▁apparatus	-7214
▁attaching	-7215
▁backbends	-7216
▁backgroud	-7217
▁bagpipers	-7218
▁bathrooms	-7219
▁bicyclers	-7220
▁bodyboard	-7221
▁bookshelf	-7222
▁bracelets	-7223
▁breathing	-7224
▁brilliant	-7225
▁brunettes	-7226
▁budweiser	-7227
▁burrowing	-7228
▁carabiner	-7229
▁cartwheel	-7230
▁cascading	-7231
▁character	-7232
▁collected	-7233
▁commuters	-7234
▁computers	-7235
▁concerned	-7236
▁contempla	-7237
▁cricketer	-7238
▁crumbling	-7239
▁customers	-7240
▁dangerous	-7241
▁daughters	-7242
▁defensive	-7243
▁dodgeball	-7244
▁downwards	-7245
▁employees	-7246
▁entangled	-7247
▁evergreen	-7248
▁exploring	-7249
▁forefront	-7250
▁gardening	-7251
▁gentlemen	-7252
▁grappling	-7253
▁guardrail	-7254
▁harmonica	-7255
▁harvested	-7256
▁headbands	-7257
▁headphone	-7258
▁headwraps	-7259
▁hollywood	-7260
▁intertube	-7261
▁jumpsuits	-7262
▁manicured	-7263
▁mustached	-7264
▁newlyweds	-7265
▁obedience	-7266
▁opponents	-7267
▁ornaments	-7268
▁overgrown	-7269
▁oversized	-7270
▁passenger	-7271
▁patiently	-7272
▁piercings	-7273
▁pinstripe	-7274
▁playgroud	-7275
▁ponytails	-7276
▁protester	-7277
▁puckering	-7278
▁punctured	-7279
▁receiving	-7280
▁recieving	-7281
▁reclining	-7282
▁retrieved	-7283
▁rotweiler	-7284
▁rummaging	-7285
▁sailboard	-7286
▁scratches	-7287
▁scrimmage	-7288
▁shielding	-7289
▁shrubbery	-7290
▁snowfield	-7291
▁snowstorm	-7292
▁snuggling	-7293
▁speedboat	-7294
▁sprinting	-7295
▁squinting	-7296
▁streamers	-7297
▁stretcher	-7298
▁supported	-7299
▁sweatsuit	-7300
▁technical	-7301
▁touchdown	-7302
▁underside	-7303
▁warehouse	-7304
▁waterside	-7305
▁yorkshire	-7306
▁youngster	-7307
▁acrobatics	-7308
▁adolescent	-7309
▁aggressive	-7310
▁amuseument	-7311
▁avrovulcan	-7312
▁ballplayer	-7313
▁billboards	-7314
▁blossoming	-7315
▁campground	-7316
▁chandelier	-7317
▁characters	-7318
▁collecting	-7319
▁collection	-7320
▁comforting	-7321
▁commercial	-7322
▁competitor	-7323
▁congregate	-7324
▁dachshunds	-7325
▁electrical	-7326
▁embankment	-7327
▁eyeglasses	-7328
▁florescent	-7329
▁frightened	-7330
▁headscarfs	-7331
▁indescript	-7332
▁innertubes	-7333
▁kickboxing	-7334
▁longhaired	-7335
▁longsleeve	-7336
▁motorcross	-7337
▁overlooked	-7338
▁paintbrush	-7339
▁performers	-7340
▁protection	-7341
▁purchasing	-7342
▁rappelling	-7343
▁restaraunt	-7344
▁scrambling	-7345
▁showerhead	-7346
▁spelunkers	-7347
▁sportswear	-7348
▁straddling	-7349
▁sunbathers	-7350
▁supporting	-7351
▁television	-7352
▁traversing	-7353
▁triangular	-7354
▁tumbleweed	-7355
▁undershirt	-7356
▁waterproof	-7357
▁windowsill	-7358
▁wristwatch	-7359
▁aerodynamic	-7360
▁automobiles	-7361
▁backpackers	-7362
▁barechested	-7363
▁bellbottoms	-7364
▁celebration	-7365
▁constructed	-7366
▁contraption	-7367
▁controlling	-7368
▁environment	-7369
▁expressions	-7370
▁fashionably	-7371
▁headdresses	-7372
▁identically	-7373
▁illuminated	-7374
▁information	-7375
▁interracial	-7376
▁mouthguards	-7377
▁overhanging	-7378
▁parasailors	-7379
▁participant	-7380
▁perspective	-7381
▁policewoman	-7382
▁possessions	-7383
▁refreshment	-7384
▁restaurants	-7385
▁schoolgirls	-7386
▁sightseeing	-7387
▁snowmobiler	-7388
▁specialized	-7389
▁tambourines	-7390
▁transparent	-7391
▁videotaping	-7392
▁amphitheater	-7393
▁certificates	-7394
▁concentrates	-7395
▁fingerpaints	-7396
▁ghostbusters	-7397
▁illustration	-7398
▁interviewing	-7399
▁investigates	-7400
▁precariously	-7401
▁pyrotechnics	-7402
▁recreational	-7403
▁roughhousing	-7404
▁snowmobiling	-7405
▁synchronized	-7406
▁architectural	-7407
▁confrontation	-7408
▁demonstrating	-7409
▁establishment	-7410
▁rollercoaster	-7411
▁affectionately	-7412
dew	-7413
ebe	-7414
gae	-7415
oci	-7416
ota	-7417
sia	-7418
sme	-7419
tax	-7420
voy	-7421
▁11	-7422
▁15	-7423
▁17	-7424
▁57	-7425
▁62	-7426
▁66	-7427
afts	-7428
burg	-7429
cala	-7430
cult	-7431
drin	-7432
ecut	-7433
foam	-7434
gaph	-7435
grat	-7436
gres	-7437
hang	-7438
iker	-7439
isms	-7440
maid	-7441
mely	-7442
mson	-7443
pole	-7444
post	-7445
pour	-7446
rome	-7447
roog	-7448
seye	-7449
shot	-7450
skis	-7451
tors	-7452
turn	-7453
ucco	-7454
wiel	-7455
▁157	-7456
▁195	-7457
▁625	-7458
▁661	-7459
▁gau	-7460
▁hdr	-7461
▁idy	-7462
▁maj	-7463
▁syn	-7464
▁tuf	-7465
adual	-7466
aggle	-7467
arged	-7468
aults	-7469
block	-7470
clace	-7471
conut	-7472
dried	-7473
eolog	-7474
erica	-7475
erior	-7476
giate	-7477
gratu	-7478
hemed	-7479
hovel	-7480
idden	-7481
ields	-7482
itual	-7483
nalia	-7484
ordin	-7485
orous	-7486
otion	-7487
ously	-7488
reeze	-7489
ridly	-7490
rised	-7491
robed	-7492
roriz	-7493
rupts	-7494
skins	-7495
slide	-7496
steps	-7497
synch	-7498
ulent	-7499
plw	-7500
goti	-7501
inta	-7502
kept	-7503
▁twp	-7504
clips	-7505
edded	-7506
gound	-7507
nific	-7508
perly	-7509
tland	-7510
udges	-7511
usely	-7512
views	-7513
walks	-7514
ylion	-7515
zoned	-7516
▁1950	-7517
▁ampl	-7518
▁ashy	-7519
▁bisc	-7520
▁bums	-7521
▁buoy	-7522
▁calf	-7523
▁coop	-7524
▁crot	-7525
▁effe	-7526
▁elbo	-7527
▁else	-7528
▁emph	-7529
▁emty	-7530
▁entw	-7531
▁font	-7532
▁fton	-7533
▁gauz	-7534
▁glan	-7535
▁gnar	-7536
▁gont	-7537
▁hunt	-7538
▁imag	-7539
▁jars	-7540
▁kaki	-7541
▁kang	-7542
▁kept	-7543
▁lame	-7544
▁maps	-7545
▁momm	-7546
▁mosa	-7547
▁muss	-7548
▁ohio	-7549
▁osme	-7550
▁oval	-7551
▁pedd	-7552
▁pigs	-7553
▁pleo	-7554
▁pota	-7555
▁punt	-7556
▁rema	-7557
▁rosy	-7558
▁salt	-7559
▁sang	-7560
▁slat	-7561
▁styl	-7562
▁sync	-7563
▁syst	-7564
▁taps	-7565
▁tawn	-7566
▁tuft	-7567
▁twho	-7568
▁uggs	-7569
▁vert	-7570
▁vibr	-7571
▁vigo	-7572
▁vint	-7573
▁wodd	-7574
▁yama	-7575
▁zaft	-7576
▁zomb	-7577
acting	-7578
alized	-7579
amused	-7580
angles	-7581
atoire	-7582
beaked	-7583
bility	-7584
boyant	-7585
carpet	-7586
cative	-7587
change	-7588
chored	-7589
cloudy	-7590
cluded	-7591
comple	-7592
dances	-7593
dpiece	-7594
ebeast	-7595
ecutes	-7596
ensely	-7597
ensils	-7598
erware	-7599
▁22	-7600
▁29	-7601
▁ze	-7602
▁zi	-7603
amds	-7604
ibly	-7605
▁cds	-7606
▁zch	-7607
▁zeb	-7608
attan	-7609
berry	-7610
feren	-7611
ibing	-7612
lowds	-7613
omber	-7614
rails	-7615
terns	-7616
▁expo	-7617
▁safe	-7618
▁seek	-7619
▁trol	-7620
▁zcht	-7621
▁zipp	-7622
▁zips	-7623
astime	-7624
atcher	-7625
eshirt	-7626
fiving	-7627
hemian	-7628
ibrant	-7629
ievely	-7630
ifacts	-7631
inderb	-7632
ippers	-7633
irtual	-7634
lently	-7635
litude	-7636
loured	-7637
motion	-7638
nesses	-7639
oliers	-7640
ousand	-7641
padour	-7642
parate	-7643
pendic	-7644
piment	-7645
plexed	-7646
prints	-7647
ricate	-7648
riotic	-7649
ritten	-7650
rofoam	-7651
rolled	-7652
roomed	-7653
semble	-7654
shield	-7655
skater	-7656
stalks	-7657
suited	-7658
tinted	-7659
tively	-7660
uchsia	-7661
uetted	-7662
uishes	-7663
ularly	-7664
ulates	-7665
uminum	-7666
wieler	-7667
xtures	-7668
yellow	-7669
▁adobe	-7670
▁aided	-7671
▁aimed	-7672
▁algae	-7673
▁angel	-7674
▁anime	-7675
▁aquat	-7676
▁aquos	-7677
▁badly	-7678
▁beckh	-7679
▁billi	-7680
▁boods	-7681
▁brige	-7682
▁browm	-7683
▁buddy	-7684
▁bulky	-7685
▁burla	-7686
▁cello	-7687
▁chipm	-7688
▁choke	-7689
▁chris	-7690
▁citiz	-7691
▁clasp	-7692
▁compo	-7693
▁crawl	-7694
▁cruis	-7695
▁dared	-7696
▁defec	-7697
▁dense	-7698
▁diplo	-7699
▁50	-7700
gues	-7701
kier	-7702
lems	-7703
rood	-7704
vise	-7705
akery	-7706
brand	-7707
inery	-7708
▁acts	-7709
▁born	-7710
▁braz	-7711
▁cige	-7712
▁colt	-7713
▁debr	-7714
▁hapy	-7715
▁trot	-7716
▁wier	-7717
itical	-7718
metery	-7719
scales	-7720
strewn	-7721
▁baked	-7722
▁chute	-7723
▁claws	-7724
▁dizzy	-7725
▁dober	-7726
▁domed	-7727
▁domes	-7728
▁domin	-7729
▁dooor	-7730
▁drags	-7731
▁eager	-7732
▁elbow	-7733
▁embro	-7734
▁encri	-7735
▁entit	-7736
▁entry	-7737
▁fador	-7738
▁fails	-7739
▁faint	-7740
▁ferns	-7741
▁ferre	-7742
▁figur	-7743
▁fluid	-7744
▁gains	-7745
▁gazed	-7746
▁glide	-7747
▁gnome	-7748
▁goods	-7749
▁gorup	-7750
▁gouch	-7751
▁herbs	-7752
▁hobby	-7753
▁hoofs	-7754
▁howls	-7755
▁ipods	-7756
▁jello	-7757
▁joker	-7758
▁knoll	-7759
▁laden	-7760
▁ladie	-7761
▁lampo	-7762
▁layer	-7763
▁leagu	-7764
▁lilly	-7765
▁litle	-7766
▁locom	-7767
▁longe	-7768
▁looms	-7769
▁maids	-7770
▁majes	-7771
▁maker	-7772
▁maple	-7773
▁medow	-7774
▁minis	-7775
▁momma	-7776
▁mucky	-7777
▁nails	-7778
▁naval	-7779
▁notre	-7780
▁oblig	-7781
▁oddly	-7782
▁orang	-7783
▁pails	-7784
▁palid	-7785
▁panes	-7786
▁pasts	-7787
▁pavil	-7788
▁pawed	-7789
▁payer	-7790
▁pearl	-7791
▁physi	-7792
▁piste	-7793
▁ponch	-7794
▁potao	-7795
▁pring	-7796
▁progr	-7797
▁protr	-7798
▁proud	-7799
haz	-7800
cheo	-7801
farm	-7802
hels	-7803
moan	-7804
mout	-7805
ohaz	-7806
ould	-7807
rodu	-7808
rons	-7809
tane	-7810
ushi	-7811
wkes	-7812
armed	-7813
cious	-7814
crack	-7815
handi	-7816
haust	-7817
ipped	-7818
kesmo	-7819
racks	-7820
▁aids	-7821
▁kore	-7822
▁litl	-7823
▁mort	-7824
▁oout	-7825
▁sugg	-7826
▁were	-7827
astern	-7828
blader	-7829
istory	-7830
kesmod	-7831
licits	-7832
lovers	-7833
rapids	-7834
tracks	-7835
ultane	-7836
vening	-7837
▁hanna	-7838
▁lapel	-7839
▁punts	-7840
▁racks	-7841
▁rakes	-7842
▁react	-7843
▁recyc	-7844
▁remax	-7845
▁repel	-7846
▁ripst	-7847
▁savan	-7848
▁scrub	-7849
▁scubb	-7850
▁seper	-7851
▁sequo	-7852
▁since	-7853
▁sizes	-7854
▁skids	-7855
▁soaks	-7856
▁soapy	-7857
▁soggy	-7858
▁solid	-7859
▁spays	-7860
▁sushi	-7861
▁swept	-7862
▁syrup	-7863
▁tablo	-7864
▁tatto	-7865
▁taxis	-7866
▁telep	-7867
▁tells	-7868
▁tilts	-7869
▁tonge	-7870
▁torch	-7871
▁total	-7872
▁trekk	-7873
▁tried	-7874
▁visor	-7875
▁whiel	-7876
▁wierd	-7877
▁wiped	-7878
▁wisks	-7879
▁wmoan	-7880
▁wooly	-7881
▁would	-7882
▁yougn	-7883
▁zchtv	-7884
acshund	-7885
akedown	-7886
allange	-7887
anterns	-7888
atative	-7889
atening	-7890
attered	-7891
bathing	-7892
branded	-7893
catcher	-7894
cession	-7895
climber	-7896
cracker	-7897
cropped	-7898
ctangle	-7899
stop	-7900
tray	-7901
uish	-7902
▁nfl	-7903
▁phi	-7904
acial	-7905
amish	-7906
banks	-7907
ikers	-7908
ishap	-7909
ishas	-7910
izine	-7911
maker	-7912
onges	-7913
orial	-7914
paved	-7915
raved	-7916
ueger	-7917
▁kong	-7918
▁mono	-7919
▁ques	-7920
▁quil	-7921
morial	-7922
rueger	-7923
▁brave	-7924
▁bullr	-7925
▁monit	-7926
▁navel	-7927
▁phila	-7928
▁portr	-7929
▁ships	-7930
allenge	-7931
drawing	-7932
eastern	-7933
erbread	-7934
flowing	-7935
gaphone	-7936
hadowed	-7937
handler	-7938
huetted	-7939
illians	-7940
imenter	-7941
ingshot	-7942
inished	-7943
iracial	-7944
ircling	-7945
keeping	-7946
kievely	-7947
lauding	-7948
lookers	-7949
mouthed	-7950
mporary	-7951
players	-7952
rafting	-7953
redible	-7954
ricanes	-7955
rocious	-7956
roduces	-7957
rorizes	-7958
rushing	-7959
spandex	-7960
spotted	-7961
striped	-7962
trimmed	-7963
ustered	-7964
weiller	-7965
working	-7966
▁agains	-7967
▁aggres	-7968
▁amazed	-7969
▁anthem	-7970
▁antics	-7971
▁aprons	-7972
▁archeo	-7973
▁archer	-7974
▁argues	-7975
▁ascend	-7976
▁avoids	-7977
▁balcon	-7978
▁barett	-7979
▁basset	-7980
▁beaten	-7981
▁beaver	-7982
▁bended	-7983
▁berets	-7984
▁biohaz	-7985
▁bomber	-7986
▁bonnet	-7987
▁bowled	-7988
▁browse	-7989
▁bumble	-7990
▁bunchh	-7991
▁bundle	-7992
▁buster	-7993
▁cardig	-7994
▁casque	-7995
▁cavort	-7996
▁chimes	-7997
▁churns	-7998
▁cigere	-7999
atos	-8000
base	-8001
ends	-8002
flop	-8003
irme	-8004
jest	-8005
lins	-8006
osed	-8007
atory	-8008
atown	-8009
boned	-8010
cents	-8011
guing	-8012
hette	-8013
rotes	-8014
vents	-8015
▁even	-8016
▁fins	-8017
▁vase	-8018
enents	-8019
mbling	-8020
omatos	-8021
reesty	-8022
riends	-8023
uhette	-8024
▁dryed	-8025
▁dupar	-8026
▁forms	-8027
▁limbs	-8028
▁lonel	-8029
▁oppos	-8030
▁saver	-8031
▁squat	-8032
▁tends	-8033
▁vents	-8034
arrotes	-8035
atorade	-8036
friends	-8037
ociated	-8038
raising	-8039
roading	-8040
umvents	-8041
▁bowing	-8042
▁client	-8043
▁clowds	-8044
▁cocked	-8045
▁coiled	-8046
▁condom	-8047
▁consul	-8048
▁convoy	-8049
▁corrug	-8050
▁county	-8051
▁coyote	-8052
▁crafts	-8053
▁creams	-8054
▁create	-8055
▁crouch	-8056
▁crowns	-8057
▁defend	-8058
▁destin	-8059
▁dishto	-8060
▁divind	-8061
▁doberm	-8062
▁dotted	-8063
▁drills	-8064
▁dupont	-8065
▁easels	-8066
▁effort	-8067
▁emerge	-8068
▁entire	-8069
▁equpit	-8070
▁escala	-8071
▁excers	-8072
▁excess	-8073
▁exotic	-8074
▁eyeing	-8075
▁fadora	-8076
▁fantas	-8077
▁farris	-8078
▁fawkes	-8079
▁ferris	-8080
▁flares	-8081
▁fliers	-8082
▁flirts	-8083
▁foggyd	-8084
▁fortun	-8085
▁fribee	-8086
▁frisbe	-8087
▁frizzy	-8088
▁fronds	-8089
▁fumble	-8090
▁gallop	-8091
▁gauzey	-8092
▁gelled	-8093
▁geolog	-8094
▁gestic	-8095
▁ghandi	-8096
▁global	-8097
▁gnarly	-8098
▁gontag	-8099
oti	-8100
adio	-8101
cons	-8102
epra	-8103
erti	-8104
gons	-8105
iove	-8106
rawn	-8107
uise	-8108
vels	-8109
ymbo	-8110
▁tye	-8111
▁vio	-8112
drawn	-8113
ertia	-8114
graph	-8115
ordic	-8116
print	-8117
ymbol	-8118
▁cact	-8119
▁exit	-8120
▁insc	-8121
▁iove	-8122
▁pais	-8123
▁silu	-8124
alleys	-8125
consin	-8126
fabric	-8127
flower	-8128
mother	-8129
otives	-8130
resent	-8131
ticles	-8132
uzzled	-8133
▁aston	-8134
▁cacti	-8135
▁cause	-8136
▁cleav	-8137
▁docks	-8138
▁exits	-8139
▁fiels	-8140
▁folks	-8141
▁hedge	-8142
▁hones	-8143
▁lodge	-8144
▁pause	-8145
▁radio	-8146
▁rates	-8147
▁refer	-8148
▁shews	-8149
▁sillo	-8150
▁snare	-8151
▁stirs	-8152
▁subar	-8153
▁vaste	-8154
▁zepra	-8155
baggons	-8156
lerates	-8157
uzzling	-8158
vention	-8159
▁bikins	-8160
▁chrome	-8161
▁clever	-8162
▁cocker	-8163
▁cruise	-8164
▁debris	-8165
▁deeper	-8166
▁fleecy	-8167
▁furred	-8168
▁goucho	-8169
▁govern	-8170
▁granny	-8171
▁halmet	-8172
▁halway	-8173
▁heroes	-8174
▁hidden	-8175
▁hippie	-8176
▁honest	-8177
▁hoodoo	-8178
▁hoolah	-8179
▁horser	-8180
▁htting	-8181
▁humans	-8182
▁hungry	-8183
▁huskey	-8184
▁indigo	-8185
▁inscri	-8186
▁jewels	-8187
▁jewler	-8188
▁jogged	-8189
▁joyful	-8190
▁juggle	-8191
▁kickfl	-8192
▁korean	-8193
▁landsc	-8194
▁lassos	-8195
▁latter	-8196
▁learns	-8197
▁levels	-8198
▁linked	-8199
xzz	-8200
cret	-8201
gley	-8202
iety	-8203
unky	-8204
uxzz	-8205
▁joh	-8206
flake	-8207
flaps	-8208
lable	-8209
uated	-8210
▁abor	-8211
▁attr	-8212
▁buzz	-8213
▁cork	-8214
▁dips	-8215
▁john	-8216
▁joke	-8217
▁jost	-8218
▁razz	-8219
▁rode	-8220
action	-8221
urated	-8222
▁astro	-8223
▁bands	-8224
▁blays	-8225
▁coral	-8226
▁cower	-8227
▁dishe	-8228
▁disks	-8229
▁ducky	-8230
▁emits	-8231
▁goals	-8232
▁kayer	-8233
▁kinds	-8234
▁landm	-8235
▁lapse	-8236
▁metro	-8237
▁muxzz	-8238
▁names	-8239
▁prair	-8240
▁siren	-8241
▁sleep	-8242
feteria	-8243
redding	-8244
▁aborig	-8245
▁buzzes	-8246
▁chaper	-8247
▁choice	-8248
▁chunky	-8249
▁cuddle	-8250
▁decked	-8251
▁joking	-8252
▁loaves	-8253
▁locker	-8254
▁mainly	-8255
▁marvel	-8256
▁masses	-8257
▁mature	-8258
▁median	-8259
▁metall	-8260
▁metrop	-8261
▁minisk	-8262
▁minnie	-8263
▁mishap	-8264
▁models	-8265
▁mortar	-8266
▁mosaic	-8267
▁motley	-8268
▁multil	-8269
▁negoti	-8270
▁netted	-8271
▁nordic	-8272
▁obscen	-8273
▁orders	-8274
▁outrun	-8275
▁packer	-8276
▁paleon	-8277
▁pavill	-8278
▁pebble	-8279
▁peddal	-8280
▁peddle	-8281
▁perked	-8282
▁pincer	-8283
▁placem	-8284
▁poncho	-8285
▁ponyta	-8286
▁popper	-8287
▁propel	-8288
▁pullup	-8289
▁pumped	-8290
▁pursed	-8291
▁quarry	-8292
▁quinta	-8293
▁rafael	-8294
▁railgr	-8295
▁raling	-8296
▁ranger	-8297
▁rapels	-8298
▁rattan	-8299
▁80	-8300
cily	-8301
face	-8302
race	-8303
step	-8304
tive	-8305
▁civ	-8306
▁enc	-8307
▁eno	-8308
▁veg	-8309
emble	-8310
throw	-8311
▁brie	-8312
▁corp	-8313
▁crad	-8314
▁crag	-8315
▁crus	-8316
▁earm	-8317
▁eyep	-8318
▁gaug	-8319
▁pace	-8320
▁skep	-8321
▁smok	-8322
▁woam	-8323
ansive	-8324
drinks	-8325
estion	-8326
quette	-8327
stance	-8328
tation	-8329
▁bears	-8330
▁brief	-8331
▁cring	-8332
▁curts	-8333
▁final	-8334
▁forth	-8335
▁jersy	-8336
▁lifes	-8337
▁paddo	-8338
▁padel	-8339
▁pinsc	-8340
▁pulle	-8341
▁subur	-8342
▁trace	-8343
▁uptop	-8344
▁vegas	-8345
▁woamn	-8346
▁write	-8347
aration	-8348
ination	-8349
istance	-8350
thrower	-8351
▁corpor	-8352
▁distur	-8353
▁enough	-8354
▁gauges	-8355
▁hatted	-8356
▁inflat	-8357
▁remote	-8358
▁repair	-8359
▁resaur	-8360
▁rights	-8361
▁ripped	-8362
▁robust	-8363
▁roofed	-8364
▁roping	-8365
▁rounda	-8366
▁ruined	-8367
▁rushed	-8368
▁safron	-8369
▁santan	-8370
▁saroog	-8371
▁saucer	-8372
▁savana	-8373
▁saxaph	-8374
▁scored	-8375
▁scowls	-8376
▁scubba	-8377
▁seagul	-8378
▁search	-8379
▁seedoo	-8380
▁seller	-8381
▁skewed	-8382
▁snakes	-8383
▁snarly	-8384
▁soaker	-8385
▁spaced	-8386
▁sphere	-8387
▁spiral	-8388
▁spouse	-8389
▁squeak	-8390
▁stange	-8391
▁stared	-8392
▁states	-8393
▁steamy	-8394
▁stocky	-8395
▁storef	-8396
▁styled	-8397
▁subaru	-8398
▁sucker	-8399
gust	-8400
nelt	-8401
▁aco	-8402
▁awe	-8403
anner	-8404
camer	-8405
erted	-8406
esser	-8407
orugh	-8408
rizon	-8409
ustic	-8410
ustle	-8411
▁poof	-8412
▁preo	-8413
▁tier	-8414
eeping	-8415
gusted	-8416
insuit	-8417
macker	-8418
orange	-8419
rizona	-8420
ttered	-8421
veteen	-8422
▁canad	-8423
▁canes	-8424
▁canno	-8425
▁canoo	-8426
▁claps	-8427
▁fists	-8428
▁knelt	-8429
▁marac	-8430
▁shake	-8431
▁turna	-8432
▁unner	-8433
cameras	-8434
esserts	-8435
pendent	-8436
smacker	-8437
▁brickw	-8438
▁cannot	-8439
▁coping	-8440
▁enforc	-8441
▁hustle	-8442
▁objest	-8443
▁outfir	-8444
▁passin	-8445
▁pastor	-8446
▁photog	-8447
▁rather	-8448
▁rested	-8449
▁sunlit	-8450
▁sweash	-8451
▁swoops	-8452
▁symbol	-8453
▁taping	-8454
▁tapped	-8455
▁thinks	-8456
▁tipped	-8457
▁tongee	-8458
▁toothp	-8459
▁toyota	-8460
▁tribal	-8461
▁twisty	-8462
▁united	-8463
▁vaults	-8464
▁venice	-8465
▁verbal	-8466
▁vessel	-8467
▁waaves	-8468
▁warily	-8469
▁wedgie	-8470
▁widows	-8471
▁wields	-8472
▁wodden	-8473
▁worked	-8474
▁wounds	-8475
▁wrecks	-8476
▁youths	-8477
▁zaftig	-8478
andylion	-8479
blazoned	-8480
carpeted	-8481
cultural	-8482
dressing	-8483
ependent	-8484
hernalia	-8485
houetted	-8486
irmeiner	-8487
motional	-8488
nificant	-8489
orsement	-8490
pedhills	-8491
pristine	-8492
racption	-8493
reezeway	-8494
restends	-8495
sembling	-8496
starting	-8497
tologist	-8498
urocious	-8499
gry	-8500
▁42	-8501
arby	-8502
bber	-8503
ddie	-8504
urry	-8505
utry	-8506
▁dem	-8507
acant	-8508
antly	-8509
atery	-8510
herry	-8511
indow	-8512
olred	-8513
ounry	-8514
uckle	-8515
▁bobb	-8516
▁budd	-8517
▁busk	-8518
▁deve	-8519
▁gott	-8520
▁khak	-8521
▁mike	-8522
▁pant	-8523
▁seah	-8524
▁whoa	-8525
antage	-8526
colred	-8527
illock	-8528
larged	-8529
packed	-8530
ucking	-8531
window	-8532
▁angry	-8533
▁bespe	-8534
▁demol	-8535
▁dough	-8536
▁filed	-8537
▁flatt	-8538
▁ladys	-8539
▁narby	-8540
▁quart	-8541
▁slant	-8542
▁stead	-8543
▁steal	-8544
▁stere	-8545
▁trams	-8546
america	-8547
atively	-8548
bbermen	-8549
▁amount	-8550
▁bobbed	-8551
▁buddha	-8552
▁cherry	-8553
▁counry	-8554
▁coutry	-8555
▁develo	-8556
▁easily	-8557
▁eatery	-8558
▁flurry	-8559
▁gotten	-8560
▁hoddie	-8561
▁khakis	-8562
▁kicker	-8563
▁rainst	-8564
▁seater	-8565
▁stereo	-8566
▁strain	-8567
▁strand	-8568
▁vacant	-8569
ustaches	-8570
venience	-8571
vocative	-8572
▁ability	-8573
▁accends	-8574
▁actions	-8575
▁adoring	-8576
▁allowed	-8577
▁applies	-8578
▁aquatic	-8579
▁attacks	-8580
▁bangles	-8581
▁barrior	-8582
▁battons	-8583
▁beached	-8584
▁beckham	-8585
▁beckons	-8586
▁belongs	-8587
▁bespect	-8588
▁biscuit	-8589
▁blasted	-8590
▁bouncey	-8591
▁branded	-8592
▁brandis	-8593
▁breaded	-8594
▁breaker	-8595
▁bridges	-8596
▁brimmed	-8597
▁buggies	-8598
▁bulging	-8599
avy	-8600
ibb	-8601
acin	-8602
aven	-8603
bale	-8604
ibbe	-8605
oire	-8606
olit	-8607
onry	-8608
rift	-8609
sped	-8610
▁riw	-8611
acher	-8612
acled	-8613
avers	-8614
avity	-8615
batic	-8616
drift	-8617
ector	-8618
heavy	-8619
opard	-8620
shire	-8621
▁agen	-8622
▁diag	-8623
▁fund	-8624
▁noce	-8625
▁peac	-8626
▁sash	-8627
▁silo	-8628
▁spac	-8629
acinto	-8630
affron	-8631
ibbean	-8632
shaven	-8633
undles	-8634
▁aloft	-8635
▁atmos	-8636
▁bathe	-8637
▁charm	-8638
▁dries	-8639
▁drips	-8640
▁peaco	-8641
▁riwal	-8642
▁roped	-8643
▁ropey	-8644
▁scale	-8645
▁shape	-8646
▁shell	-8647
▁stoll	-8648
▁thank	-8649
▁viewf	-8650
asterol	-8651
etector	-8652
ientist	-8653
olitain	-8654
▁agency	-8655
▁appare	-8656
▁atmosp	-8657
▁bathed	-8658
▁fourth	-8659
▁gators	-8660
▁glares	-8661
▁looker	-8662
▁poorly	-8663
▁shares	-8664
acintosh	-8665
ordshire	-8666
▁adopted	-8667
▁apparel	-8668
▁armoire	-8669
▁ashtray	-8670
▁bumpers	-8671
▁bundles	-8672
▁burgers	-8673
▁bushels	-8674
▁busying	-8675
▁butting	-8676
▁campfla	-8677
▁capture	-8678
▁castles	-8679
▁ceremon	-8680
▁charged	-8681
▁cinderb	-8682
▁circles	-8683
▁clapped	-8684
▁clasped	-8685
▁clibing	-8686
▁coached	-8687
▁cockpit	-8688
▁coconut	-8689
▁compact	-8690
▁conical	-8691
▁contact	-8692
▁convert	-8693
▁coopers	-8694
▁coordin	-8695
▁coppery	-8696
▁coyotes	-8697
▁crafted	-8698
▁crazily	-8699
gth	-8700
imp	-8701
len	-8702
aroo	-8703
tian	-8704
▁bol	-8705
▁due	-8706
▁lil	-8707
andhi	-8708
asted	-8709
astic	-8710
floor	-8711
ilian	-8712
inian	-8713
oolen	-8714
pherd	-8715
▁bigg	-8716
▁blit	-8717
▁bras	-8718
▁brwo	-8719
▁chel	-8720
▁ciff	-8721
▁dane	-8722
▁duel	-8723
▁east	-8724
▁hods	-8725
▁mast	-8726
▁pees	-8727
▁unsp	-8728
▁worm	-8729
isters	-8730
nished	-8731
rength	-8732
soling	-8733
▁blitz	-8734
▁bolts	-8735
▁brigh	-8736
▁brwon	-8737
▁kneep	-8738
▁pipes	-8739
▁shimp	-8740
▁smiff	-8741
▁stiff	-8742
▁toast	-8743
▁tread	-8744
▁treed	-8745
▁usual	-8746
▁waded	-8747
▁zebra	-8748
hepherd	-8749
stinian	-8750
▁armful	-8751
▁cavern	-8752
▁chello	-8753
▁conver	-8754
▁falcon	-8755
▁gandhi	-8756
▁lilies	-8757
▁mastif	-8758
▁movers	-8759
▁queens	-8760
▁redish	-8761
▁sevent	-8762
▁strung	-8763
▁sveral	-8764
▁thrust	-8765
▁unspoo	-8766
▁woolen	-8767
shepherd	-8768
▁brighly	-8769
▁cavorts	-8770
▁coloful	-8771
▁creates	-8772
▁crewmen	-8773
▁cringes	-8774
▁critter	-8775
▁cropped	-8776
▁crucifi	-8777
▁cruiser	-8778
▁crushed	-8779
▁curling	-8780
▁curtsey	-8781
▁dangles	-8782
▁davison	-8783
▁dealing	-8784
▁defaced	-8785
▁defying	-8786
▁diagram	-8787
▁dimpled	-8788
▁dipping	-8789
▁discuss	-8790
▁disheve	-8791
▁dishtow	-8792
▁distrib	-8793
▁distric	-8794
▁diverse	-8795
▁docking	-8796
▁dodging	-8797
▁donates	-8798
▁draping	-8799
ima	-8800
imy	-8801
mos	-8802
ngs	-8803
uge	-8804
▁3-	-8805
ardt	-8806
bout	-8807
irty	-8808
ride	-8809
rmos	-8810
utes	-8811
zone	-8812
▁bei	-8813
▁cel	-8814
▁cos	-8815
hardt	-8816
iving	-8817
rongs	-8818
umped	-8819
unset	-8820
▁beij	-8821
▁bout	-8822
▁fame	-8823
▁girt	-8824
▁hawk	-8825
▁icey	-8826
▁nuss	-8827
▁orbs	-8828
▁peol	-8829
▁poms	-8830
▁reds	-8831
burger	-8832
idered	-8833
nhardt	-8834
skates	-8835
▁agile	-8836
▁beack	-8837
▁bring	-8838
▁grima	-8839
▁plats	-8840
▁plows	-8841
▁slimy	-8842
▁soled	-8843
▁tawny	-8844
▁trips	-8845
plessly	-8846
▁burbur	-8847
▁chutes	-8848
▁flakes	-8849
▁lotion	-8850
▁nussle	-8851
▁signed	-8852
▁thirty	-8853
▁vision	-8854
gesunset	-8855
▁beijing	-8856
▁celtics	-8857
▁childer	-8858
▁drumset	-8859
▁ducking	-8860
▁eagerly	-8861
▁earmuff	-8862
▁effects	-8863
▁egytian	-8864
▁eluding	-8865
▁emerald	-8866
▁emerged	-8867
▁endzone	-8868
▁enforce	-8869
▁excites	-8870
▁exhaust	-8871
▁fancily	-8872
▁farward	-8873
▁fastest	-8874
▁fathers	-8875
▁fatigue	-8876
▁fellows	-8877
▁fetched	-8878
▁filming	-8879
▁fishers	-8880
▁fisheye	-8881
▁flashes	-8882
▁florist	-8883
▁focused	-8884
▁focuses	-8885
▁fooling	-8886
▁formula	-8887
▁fortess	-8888
▁fortune	-8889
▁frisbie	-8890
▁fuchsia	-8891
▁furious	-8892
▁further	-8893
▁garland	-8894
▁garment	-8895
▁geishas	-8896
▁gliders	-8897
▁glowers	-8898
▁glowing	-8899
cap	-8900
hen	-8901
how	-8902
tto	-8903
xim	-8904
▁33	-8905
▁my	-8906
▁ur	-8907
amet	-8908
ason	-8909
iday	-8910
ques	-8911
rody	-8912
▁ate	-8913
▁gur	-8914
▁won	-8915
liday	-8916
redom	-8917
river	-8918
▁blog	-8919
▁fred	-8920
▁grss	-8921
▁gurn	-8922
▁here	-8923
▁judo	-8924
▁king	-8925
▁mile	-8926
▁neat	-8927
▁ract	-8928
▁teas	-8929
▁urge	-8930
ametag	-8931
asonic	-8932
eteran	-8933
inking	-8934
monade	-8935
ximity	-8936
▁areas	-8937
▁ashen	-8938
▁bangs	-8939
▁based	-8940
▁behin	-8941
▁lopes	-8942
▁masqu	-8943
▁miles	-8944
▁razer	-8945
▁scare	-8946
▁spoke	-8947
▁troll	-8948
▁waing	-8949
▁wants	-8950
ametags	-8951
pension	-8952
uddling	-8953
▁agents	-8954
▁anciet	-8955
▁behinf	-8956
▁chasse	-8957
▁firepl	-8958
▁freddy	-8959
▁grotto	-8960
▁gurnee	-8961
▁neatly	-8962
▁outise	-8963
▁parody	-8964
▁russel	-8965
▁stoney	-8966
▁stucco	-8967
▁swirls	-8968
▁teases	-8969
ndoliers	-8970
▁boredom	-8971
▁daytime	-8972
▁designs	-8973
▁goggled	-8974
▁gontaga	-8975
▁goofing	-8976
▁graffti	-8977
▁granite	-8978
▁gravity	-8979
▁griding	-8980
▁groucho	-8981
▁grownup	-8982
▁gushing	-8983
▁hacking	-8984
▁halmets	-8985
▁hamming	-8986
▁handout	-8987
▁harvest	-8988
▁heather	-8989
▁heights	-8990
▁hillock	-8991
▁holiday	-8992
▁hoodies	-8993
▁hoodoos	-8994
▁hundred	-8995
▁iceburg	-8996
▁imagery	-8997
▁impress	-8998
▁include	-8999
rom	-9000
ume	-9001
uts	-9002
▁ll	-9003
abby	-9004
atom	-9005
fill	-9006
gear	-9007
hold	-9008
irly	-9009
ndar	-9010
site	-9011
zily	-9012
▁bog	-9013
▁gra	-9014
▁len	-9015
▁let	-9016
▁ren	-9017
▁rom	-9018
▁thw	-9019
atomy	-9020
beque	-9021
boats	-9022
noyed	-9023
peace	-9024
▁cath	-9025
▁chic	-9026
▁drak	-9027
▁easy	-9028
▁foul	-9029
▁ging	-9030
▁pand	-9031
▁pats	-9032
▁pots	-9033
▁rena	-9034
▁thro	-9035
▁wuth	-9036
▁year	-9037
buried	-9038
ichord	-9039
raping	-9040
▁alien	-9041
▁bland	-9042
▁dingo	-9043
▁feels	-9044
▁flaut	-9045
▁flume	-9046
▁layup	-9047
▁moter	-9048
▁panda	-9049
▁playy	-9050
▁romps	-9051
▁roofs	-9052
▁touts	-9053
▁wispy	-9054
roughly	-9055
▁aliens	-9056
▁chicag	-9057
▁fairly	-9058
▁gigant	-9059
▁lazily	-9060
▁lenses	-9061
▁renais	-9062
▁shabby	-9063
▁throat	-9064
▁topped	-9065
psichord	-9066
▁anatomy	-9067
▁annoyed	-9068
▁cathcer	-9069
▁chicago	-9070
▁dumping	-9071
▁grouped	-9072
▁inertia	-9073
▁infants	-9074
▁inspect	-9075
▁intense	-9076
▁jewlery	-9077
▁joggers	-9078
▁jostles	-9079
▁juggler	-9080
▁jumpinj	-9081
▁justice	-9082
▁kneeled	-9083
▁knocked	-9084
▁knotted	-9085
▁knuckle	-9086
▁krueger	-9087
▁lagging	-9088
▁lampost	-9089
▁largley	-9090
▁layered	-9091
▁leaguer	-9092
▁leopard	-9093
▁lifeves	-9094
▁lightly	-9095
▁loading	-9096
▁longish	-9097
▁lounges	-9098
▁mannequ	-9099
idl	-9100
uet	-9101
xts	-9102
▁30	-9103
ailb	-9104
alth	-9105
fish	-9106
isen	-9107
rahi	-9108
▁doc	-9109
▁mes	-9110
▁rim	-9111
ptian	-9112
uming	-9113
▁bigs	-9114
▁chis	-9115
▁euro	-9116
▁hack	-9117
▁mesa	-9118
▁ones	-9119
▁peer	-9120
▁pugs	-9121
▁sack	-9122
▁thou	-9123
▁ways	-9124
iences	-9125
length	-9126
restle	-9127
▁bluet	-9128
▁bones	-9129
▁chidl	-9130
▁flown	-9131
▁jailb	-9132
▁parap	-9133
▁restr	-9134
▁risen	-9135
▁slips	-9136
▁sting	-9137
▁texts	-9138
▁tufts	-9139
borador	-9140
washing	-9141
wrestle	-9142
▁broach	-9143
▁burned	-9144
▁creamy	-9145
▁dealth	-9146
▁hackey	-9147
▁juming	-9148
▁litlle	-9149
▁lonely	-9150
▁onesie	-9151
▁proped	-9152
▁videos	-9153
▁woolly	-9154
painting	-9155
▁mansion	-9156
▁maracas	-9157
▁marlins	-9158
▁masonry	-9159
▁masquer	-9160
▁matador	-9161
▁matchin	-9162
▁mermaid	-9163
▁message	-9164
▁mexican	-9165
▁milling	-9166
▁moniter	-9167
▁monkeys	-9168
▁mothers	-9169
▁mountin	-9170
▁moutain	-9171
▁napping	-9172
▁neclace	-9173
▁netting	-9174
▁nibbles	-9175
▁nipples	-9176
▁notices	-9177
▁obscene	-9178
▁obscure	-9179
▁occured	-9180
▁operate	-9181
▁oppsite	-9182
▁organic	-9183
▁ourdoor	-9184
▁outline	-9185
▁overtop	-9186
▁packers	-9187
▁paddock	-9188
▁paisley	-9189
▁palying	-9190
▁panties	-9191
▁partake	-9192
▁passers	-9193
▁pastels	-9194
▁patrons	-9195
▁pausing	-9196
▁peacoat	-9197
▁pebbles	-9198
▁peeping	-9199
ev	-9200
aue	-9201
cid	-9202
pin	-9203
yer	-9204
▁il	-9205
▁ot	-9206
arie	-9207
cran	-9208
evil	-9209
itts	-9210
vish	-9211
▁bru	-9212
▁tin	-9213
▁wan	-9214
alell	-9215
crank	-9216
▁atom	-9217
▁bash	-9218
▁dave	-9219
▁gain	-9220
▁hers	-9221
▁ilks	-9222
▁isla	-9223
▁opin	-9224
▁wavy	-9225
osited	-9226
▁disto	-9227
▁foyer	-9228
▁islam	-9229
▁obese	-9230
▁overc	-9231
▁pilar	-9232
▁shepp	-9233
▁silky	-9234
▁sitts	-9235
▁staue	-9236
brimmed	-9237
setting	-9238
▁aboard	-9239
▁atomic	-9240
▁become	-9241
▁cleats	-9242
▁coated	-9243
▁creepy	-9244
▁elbows	-9245
▁expand	-9246
▁joined	-9247
▁lavish	-9248
▁placid	-9249
▁prarie	-9250
▁ripsti	-9251
▁rodent	-9252
▁shapes	-9253
▁sloppy	-9254
▁smiled	-9255
▁snacks	-9256
▁stacks	-9257
▁teeing	-9258
▁tinsel	-9259
▁towing	-9260
▁turtle	-9261
▁yamaha	-9262
swinging	-9263
▁bedroll	-9264
▁bruised	-9265
▁cathing	-9266
▁depicts	-9267
▁explore	-9268
▁flanked	-9269
▁islamic	-9270
▁modific	-9271
▁muscles	-9272
▁opinion	-9273
▁peirced	-9274
▁pensive	-9275
▁peolple	-9276
▁perfoms	-9277
▁perfors	-9278
▁periods	-9279
▁perused	-9280
▁pianist	-9281
▁pinches	-9282
▁planter	-9283
▁playgym	-9284
▁playtoy	-9285
▁pleople	-9286
▁pompoms	-9287
▁pooping	-9288
▁pouting	-9289
▁powdery	-9290
▁prairie	-9291
▁prepair	-9292
▁priests	-9293
▁project	-9294
▁propels	-9295
▁pulleys	-9296
▁punting	-9297
▁puzzled	-9298
▁rabbits	-9299
iy	-9300
▁9	-9301
ems	-9302
ola	-9303
▁97	-9304
▁ja	-9305
▁yu	-9306
eram	-9307
lear	-9308
nore	-9309
poun	-9310
▁jub	-9311
▁kiy	-9312
▁mog	-9313
▁pll	-9314
apour	-9315
child	-9316
clear	-9317
creen	-9318
poung	-9319
▁bron	-9320
▁cola	-9321
▁jazz	-9322
▁ling	-9323
▁slur	-9324
▁solo	-9325
▁yong	-9326
eramic	-9327
flying	-9328
olated	-9329
▁burns	-9330
▁dolls	-9331
▁fedor	-9332
▁flagg	-9333
▁footp	-9334
▁grond	-9335
▁jubil	-9336
▁locks	-9337
▁mogul	-9338
▁mommy	-9339
▁mulch	-9340
▁poems	-9341
▁retri	-9342
▁rowed	-9343
▁swear	-9344
▁tikes	-9345
▁yuong	-9346
fishing	-9347
strokes	-9348
▁bronze	-9349
▁colaps	-9350
▁decide	-9351
▁fedora	-9352
▁flexib	-9353
▁garmet	-9354
▁ignore	-9355
▁plling	-9356
▁santas	-9357
▁slurps	-9358
▁vapour	-9359
▁waling	-9360
▁ypoung	-9361
children	-9362
▁advance	-9363
▁boatful	-9364
▁ceramic	-9365
▁christm	-9366
▁cleared	-9367
▁energet	-9368
▁fantasy	-9369
▁lingers	-9370
▁mussels	-9371
▁rackets	-9372
▁raining	-9373
▁readied	-9374
▁recieve	-9375
▁recital	-9376
▁recline	-9377
▁redhead	-9378
▁reeling	-9379
▁renaiss	-9380
▁retreiv	-9381
▁retrive	-9382
▁reveals	-9383
▁reviews	-9384
▁rippled	-9385
▁ripstik	-9386
▁roasted	-9387
▁rounded	-9388
▁ruggers	-9389
▁rustric	-9390
▁saddled	-9391
▁saffron	-9392
▁samples	-9393
▁sandbox	-9394
▁santana	-9395
▁sarongs	-9396
▁saucers	-9397
▁savanah	-9398
▁scanner	-9399
yd	-9400
lin	-9401
bled	-9402
omps	-9403
phia	-9404
ship	-9405
▁elf	-9406
▁hyd	-9407
▁rel	-9408
▁roo	-9409
▁wax	-9410
almon	-9411
cover	-9412
dolin	-9413
osure	-9414
uther	-9415
▁crud	-9416
▁doge	-9417
▁rang	-9418
elphia	-9419
orship	-9420
ubbled	-9421
urting	-9422
▁baggy	-9423
▁flare	-9424
▁handw	-9425
▁jomps	-9426
▁manue	-9427
▁patro	-9428
▁roots	-9429
▁skimp	-9430
▁squad	-9431
▁venue	-9432
▁woody	-9433
avating	-9434
delphia	-9435
maining	-9436
▁backse	-9437
▁bathes	-9438
▁biscut	-9439
▁dreeds	-9440
▁hardly	-9441
▁hotrod	-9442
▁labrad	-9443
▁liking	-9444
▁missed	-9445
▁opened	-9446
▁pitted	-9447
▁playes	-9448
▁rellow	-9449
▁salmon	-9450
▁seeing	-9451
▁womand	-9452
▁cartwhe	-9453
▁crudely	-9454
▁escorts	-9455
▁hydrant	-9456
▁rangers	-9457
▁rangler	-9458
▁scarily	-9459
▁scarred	-9460
▁schools	-9461
▁scratch	-9462
▁seaguls	-9463
▁seawall	-9464
▁seeking	-9465
▁sending	-9466
▁serving	-9467
▁seventh	-9468
▁shading	-9469
▁shelton	-9470
▁signage	-9471
▁sisters	-9472
▁skimply	-9473
▁slender	-9474
▁smilely	-9475
▁smokest	-9476
▁snakesk	-9477
▁snorkel	-9478
▁snowplo	-9479
▁sombody	-9480
▁somehow	-9481
▁spashes	-9482
▁spelunk	-9483
▁spiking	-9484
▁sponges	-9485
▁sprawls	-9486
▁squated	-9487
▁stacked	-9488
▁statute	-9489
▁steeple	-9490
▁steered	-9491
▁stirred	-9492
▁stoppie	-9493
▁strains	-9494
▁strides	-9495
▁strokes	-9496
▁studded	-9497
▁stylish	-9498
▁suckles	-9499
ii	-9500
tn	-9501
ett	-9502
nde	-9503
amle	-9504
beam	-9505
erup	-9506
idge	-9507
ilts	-9508
ndon	-9509
tnig	-9510
▁boe	-9511
▁chi	-9512
▁wii	-9513
clock	-9514
londe	-9515
▁bunn	-9516
▁erup	-9517
▁load	-9518
▁mail	-9519
▁mind	-9520
▁rall	-9521
▁smir	-9522
blonde	-9523
quated	-9524
▁edges	-9525
▁eyese	-9526
▁hosed	-9527
▁kilts	-9528
▁reson	-9529
▁taped	-9530
breaker	-9531
▁acroos	-9532
▁basett	-9533
▁burlap	-9534
▁chainm	-9535
▁croche	-9536
▁crotch	-9537
▁erupts	-9538
▁feamle	-9539
▁holing	-9540
▁keeper	-9541
▁london	-9542
▁pawing	-9543
▁picure	-9544
▁posign	-9545
▁rasing	-9546
▁smirks	-9547
▁tablet	-9548
▁accross	-9549
▁bunnies	-9550
▁circled	-9551
▁gettnig	-9552
▁helment	-9553
▁hovered	-9554
▁looming	-9555
▁lunches	-9556
▁minding	-9557
▁punches	-9558
▁quilted	-9559
▁rallies	-9560
▁skipped	-9561
▁smashed	-9562
▁sundown	-9563
▁sunsets	-9564
▁swallow	-9565
▁swarmed	-9566
▁sweatsh	-9567
▁swimcap	-9568
▁takeing	-9569
▁tatooed	-9570
▁tattoed	-9571
▁teacher	-9572
▁terrior	-9573
▁thermos	-9574
▁thinner	-9575
▁thorugh	-9576
▁thrower	-9577
▁tilling	-9578
▁tilting	-9579
▁toddles	-9580
▁tomatos	-9581
▁tophats	-9582
▁trolley	-9583
▁trotted	-9584
▁trumped	-9585
▁tucking	-9586
▁tumbles	-9587
▁unified	-9588
▁unifrom	-9589
▁unpaved	-9590
▁upfront	-9591
▁valleys	-9592
▁variety	-9593
▁vaulter	-9594
▁vendors	-9595
▁verizon	-9596
▁veteran	-9597
▁virtual	-9598
▁walkman	-9599
wl	-9600
▁x	-9601
cea	-9602
dan	-9603
erf	-9604
iry	-9605
uti	-9606
wer	-9607
▁pf	-9608
ergy	-9609
hear	-9610
mons	-9611
telo	-9612
▁doe	-9613
▁jay	-9614
izard	-9615
▁diry	-9616
▁fowl	-9617
▁holy	-9618
▁muti	-9619
▁nerf	-9620
▁pods	-9621
▁rips	-9622
▁then	-9623
▁twos	-9624
▁yach	-9625
cealed	-9626
dancer	-9627
scapes	-9628
telope	-9629
▁flick	-9630
▁heard	-9631
▁indic	-9632
▁piles	-9633
▁rapid	-9634
▁sewer	-9635
▁shite	-9636
▁yacht	-9637
iferent	-9638
patched	-9639
▁caring	-9640
▁clergy	-9641
▁flickr	-9642
▁hister	-9643
▁knight	-9644
▁lemons	-9645
▁nudges	-9646
▁paragl	-9647
▁tucked	-9648
▁visits	-9649
▁wizard	-9650
▁cleaned	-9651
▁footage	-9652
▁gradual	-9653
▁guarded	-9654
▁jaywalk	-9655
▁manager	-9656
▁mcdonal	-9657
▁numeral	-9658
▁peoples	-9659
▁rodents	-9660
▁slanted	-9661
▁spewing	-9662
▁vibrant	-9663
▁wanders	-9664
▁warning	-9665
▁weating	-9666
▁welcome	-9667
▁wetland	-9668
▁winters	-9669
▁wintery	-9670
▁wipeout	-9671
▁witches	-9672
▁wounded	-9673
▁wrecked	-9674
▁wrestil	-9675
▁youngle	-9676
▁zipping	-9677
▁zombies	-9678
andylions	-9679
completed	-9680
kerchiefs	-9681
kesmodels	-9682
paintings	-9683
patterned	-9684
resenting	-9685
upperware	-9686
▁aborigin	-9687
▁acoustic	-9688
▁advances	-9689
▁advertis	-9690
▁aligator	-9691
▁allowing	-9692
▁anchored	-9693
▁anouther	-9694
▁antelope	-9695
▁antennae	-9696
▁archways	-9697
▁armbands	-9698
▁armchair	-9699
erp	-9700
zes	-9701
▁hp	-9702
aket	-9703
inet	-9704
nial	-9705
reis	-9706
ugar	-9707
urer	-9708
▁cin	-9709
▁egg	-9710
▁gui	-9711
▁hop	-9712
gerly	-9713
▁burn	-9714
▁mate	-9715
▁sari	-9716
▁sect	-9717
▁subm	-9718
▁blank	-9719
▁burnt	-9720
▁butts	-9721
▁dozes	-9722
▁jaket	-9723
▁lakes	-9724
▁linet	-9725
▁pride	-9726
▁shook	-9727
▁tones	-9728
▁tulip	-9729
▁whild	-9730
▁batons	-9731
▁caterp	-9732
▁circus	-9733
▁cloths	-9734
▁cougar	-9735
▁exhibt	-9736
▁fiesty	-9737
▁formed	-9738
▁grouch	-9739
▁groupe	-9740
▁jersay	-9741
▁melted	-9742
▁montan	-9743
▁smoked	-9744
▁stubby	-9745
▁submis	-9746
▁sunhat	-9747
▁system	-9748
▁angerly	-9749
▁busines	-9750
▁carreis	-9751
▁dirtbed	-9752
▁dragons	-9753
▁emblems	-9754
▁ferrett	-9755
▁flyaway	-9756
▁goalies	-9757
▁grouchy	-9758
▁litttle	-9759
▁montana	-9760
▁neither	-9761
▁nestled	-9762
▁persian	-9763
▁punkish	-9764
▁rapidly	-9765
▁shaving	-9766
▁slumped	-9767
▁started	-9768
▁armstand	-9769
▁arriving	-9770
▁articles	-9771
▁assemble	-9772
▁athelete	-9773
▁attaches	-9774
▁autumnal	-9775
▁backlegs	-9776
▁backseat	-9777
▁bandages	-9778
▁bandanas	-9779
▁banister	-9780
▁barbeque	-9781
▁barbwire	-9782
▁bareback	-9783
▁barettes	-9784
▁beanches	-9785
▁belaying	-9786
▁blankets	-9787
▁bleached	-9788
▁blockers	-9789
▁blooming	-9790
▁bluejean	-9791
▁bodyless	-9792
▁bodysuit	-9793
▁bohemian	-9794
▁braiding	-9795
▁branding	-9796
▁breathes	-9797
▁browsing	-9798
▁bubbling	-9799
ops	-9800
ainy	-9801
erun	-9802
hole	-9803
▁las	-9804
▁mad	-9805
▁ont	-9806
cking	-9807
etops	-9808
inium	-9809
orian	-9810
other	-9811
▁boas	-9812
▁daft	-9813
▁fron	-9814
▁gion	-9815
▁jets	-9816
▁loan	-9817
▁poll	-9818
▁rags	-9819
▁wets	-9820
▁will	-9821
chback	-9822
others	-9823
seated	-9824
themed	-9825
▁blast	-9826
▁cubby	-9827
▁fanny	-9828
▁fronr	-9829
▁frown	-9830
▁funky	-9831
▁giong	-9832
▁hindu	-9833
▁milkb	-9834
▁rifle	-9835
▁scans	-9836
▁twome	-9837
unction	-9838
▁bikina	-9839
▁blasts	-9840
▁grainy	-9841
▁hapily	-9842
▁pastel	-9843
▁stroke	-9844
couraged	-9845
ications	-9846
▁backing	-9847
▁classes	-9848
▁fending	-9849
▁fleeing	-9850
▁glacial	-9851
▁hawaiin	-9852
▁homerun	-9853
▁science	-9854
▁sequins	-9855
▁suburbs	-9856
▁tabloid	-9857
▁thought	-9858
▁vegetab	-9859
andalized	-9860
▁bulldogs	-9861
▁bullseye	-9862
▁buttoned	-9863
▁canadian	-9864
▁canooers	-9865
▁captures	-9866
▁cardigan	-9867
▁casterol	-9868
▁cautious	-9869
▁changing	-9870
▁cheerful	-9871
▁chestnut	-9872
▁childern	-9873
▁childing	-9874
▁chipmunk	-9875
▁chrismas	-9876
▁churning	-9877
▁circling	-9878
▁citizens	-9879
▁cleavage	-9880
▁clifftop	-9881
▁closeout	-9882
▁codpiece	-9883
▁coliding	-9884
▁collides	-9885
▁colonial	-9886
▁comforts	-9887
▁communal	-9888
▁competes	-9889
▁conferen	-9890
▁congratu	-9891
▁consumer	-9892
▁counters	-9893
▁coverall	-9894
▁cradling	-9895
▁crampons	-9896
▁creative	-9897
▁creeping	-9898
▁cresting	-9899
rii	-9900
adet	-9901
dyed	-9902
rium	-9903
tree	-9904
ully	-9905
xion	-9906
yler	-9907
▁dhe	-9908
▁gin	-9909
▁noy	-9910
▁tbe	-9911
▁tge	-9912
▁wad	-9913
assel	-9914
idded	-9915
uling	-9916
ylist	-9917
▁cuto	-9918
▁dart	-9919
▁fier	-9920
▁grip	-9921
▁heap	-9922
▁lost	-9923
▁mine	-9924
▁mole	-9925
▁mown	-9926
▁outs	-9927
▁rods	-9928
▁tabs	-9929
▁tide	-9930
▁word	-9931
rought	-9932
▁blown	-9933
▁broad	-9934
▁cadet	-9935
▁crime	-9936
▁fully	-9937
▁stoic	-9938
▁surve	-9939
▁torii	-9940
ambling	-9941
feeding	-9942
▁atrium	-9943
▁belays	-9944
▁coasts	-9945
▁	-9946
a	-9947
e	-9948
n	-9949
i	-9950
o	-9951
t	-9952
r	-9953
s	-9954
l	-9955
h	-9956
g	-9957
d	-9958
w	-9959
c	-9960
b	-9961
u	-9962
p	-9963
m	-9964
.	-9965
y	-9966
k	-9967
f	-9968
v	-9969
j	-9970
,	-9971
x	-9972
-	-9973
z	-9974
'	-9975
q	-9976
"	-9977
2	-9978
3	-9979
5	-9980
;	-9981
1	-9982
4	-9983
8	-9984
#	-9985
!	-9986
6	-9987
7	-9988
?	-9989
0	-9990
9	-9991
&	-9992
(	-9993
)	-9994
:	-9995
